{"metadata": {"name": "FromString", "description": "Created from string 'TEST'", "uuid": "3c65d2d5-8a23-4eb0-b1e0-e6259ad14ae1", "epoch": 1623251225.447604}, "tensor": "gASVjBkAAAAAAACMDHRvcmNoLl91dGlsc5SMEl9yZWJ1aWxkX3RlbnNvcl92MpSTlCiMDXRvcmNoLnN0b3JhZ2WUjBBfbG9hZF9mcm9tX2J5dGVzlJOUQvoYAACAAooKbPycRvkgaqhQGS6AAk3pAy6AAn1xAChYEAAAAHByb3RvY29sX3ZlcnNpb25xAU3pA1gNAAAAbGl0dGxlX2VuZGlhbnECiFgKAAAAdHlwZV9zaXplc3EDfXEEKFgFAAAAc2hvcnRxBUsCWAMAAABpbnRxBksEWAQAAABsb25ncQdLBHV1LoACKFgHAAAAc3RvcmFnZXEAY3RvcmNoCkZsb2F0U3RvcmFnZQpxAVgNAAAAMjA1MTE1MTI0MzE1MnECWAMAAABjcHVxA00ABk50cQRRLoACXXEAWA0AAAAyMDUxMTUxMjQzMTUycQFhLgAGAAAAAAAAp1anPMbmobxt+0U+iRayvbtwCD77ow69iUhgvgOzC75I+pA9E6qNPfJWnz0QijW+6xpju50ixr2BxcI8r6SPvWzR0j04owC97EsgvqtRJT6exhE9TRRUvNesI74Og3M9ukcTvQhGWL1TMsQ9n7KpvXfzzj36fe47lrW8PPUEBb6FgMi7hmC0vcMzrTwzpFG9ztmivvgyiTs+Qsi7hz1lvlTdFT4Lhqi9HgzavMi+tjxvEis+GTUAPvEkXTzUG/+8WybaPXPfkb19egQ+ync+PQRXlD1RDvu9OdnIvIZshL78Mya8Y6XVPXVytL3LgNe8pTffvYwHT71ICgQ8awRGvOGyE75wE1o9OoPvvT0xi71A1m4+t+6rPe21ND18CJm64XEoPYFlhLw8GSi+3gcjPeRBDj3UZqU9ANRuvWw6Ej51N1Y+x7LwPDCoVD3iFOI8/DGMu8tsjb0uc7m9QGtCvppYab1XmrK7kCVqPbclwr0wyJK9S2lGPCnCv72XWB8+9lifvUUGJL35Wb69u6wpvnt/7L1Rig0+Yw+evZY1z73chAq+WxFhvblS5rzHnv691ysWPD3jVr4shzu9qtvuvQn5ET1VjwM+ys7hvSlh0Tzi/oc97fWTPDgXfj311RI9aAjzvYfAEzwqyLe9THf1PYrhFbxy8xi+VMGFPNY2CD7j7c47QPe7vRxGSb0ym868PHOdO6JNxj1FkAG8XOYNvW5L3j0/JCi8U1W+PqtEIb5s+V49FqglOxCIqj10YQG+CAMVOi0iO74D9Pg8Vdp+vf5flz0C+Ge9goCbPaLrKr2e1bo8NeKnvZ/JET4Qs+Y96iTsurmSDb1SMCM+0IH8vWGHL73UBoo9mq6MPNF2j73wUhg+efqBvUAxw71bg4g+6BUvPg+yCD2qqBY+T3tHPq4IQz0kuYK90wlXvFuHyD1ebo0+tQfpPHRt071Yt0Q9r8CmvOCiEL5eYCO8r7DFvUckAb6Jvoo9QKj9PY0jEz4KQZk9Uel2viz7yL02KYu97eGUPfkVjz0/jzs97Y0RPspoOT2jZ4Q8juZGvVHczz3BiYc9N2Awvmky2zyCuv690Ci0vF5Aj7xn1BC+2uLmvVQCq7wB6CM+SzyIPGwuj71LauM9FnwDvptZEzw1KB2+OXwqvWsPGD7GwVk9YwoJPvAiSr2NXcM9Gr3+O69b8L2xVP28lMxLvaNAxD2MdBm+NygZPu9tVj1B4k6+ztFIPT9TUL6YQqO9+uRLPRy5KL3uPo09KGmAvfK3fbyyEpk9CqS4vdWJ97xB3+I9SCIlva1ET70udVI9CHOZvU8X5L1d/au9EaGOPeQpFz5IZ/m8Of2KPT6LyD11rvE9ub7oO59YZD2emTc9On5PPYJG2jxhqOO9oa4sPepByzw2Lj89hppmPkSk/b0RC0m+VKdbvVzsu718qUi8EJ2wPZ969b2WEp69lg2/vSXM47xThWu9hE/IvfK5+D2q46E8HEzjPfRhhL6Wa9m8Q+X/PJeak7w80GE9OezkPQ0efz5N/LQ9yTBrvnJrLz4FkmI9iMg4O4jKCD4euA8+BzIkPgOUUD0tCgE9UFEiPqkaCD4+eoK9xHh6vLwWWr1bqFK9lxiSvaY7ND7O7aQ7fmPcPfn0mb1QsVw+maGRPb/IgTw5u709mvubvSRQf72tN0o+e4ZZvUK6RD1Dg9U9+amou14/kLxKimw+FSiYvZk1Ijzjx709IaaOvOa8DTyWMyG+GX6GvefvPT1fYZY965xFvLHDKr1OX4q8ayTlPYTvobxTET69RWdsPdR3Sr2oGqa9BGvWvPW9Ij2ojsY9QGKxvcZO5jy/MAc9vIp3vGrE7LwhFn69Jg5VPeeZtrz+VmA9oJYCviOqSr7Gwbk9z+l6PEHCeD0n87Q9Iq0nPpHnnb38uuG9CHe7PGSmr7zcwOq+B4iovFo5G72YEjc+YlS4POMTST3NrTO9t7ehvRAoGb7eBkE9MNxMvaCgAL6mfzc+7cD+PdPYvDtJuBK+wFaSvPaTGD5ZtA4+kTugPXi03L0FLZo90BnrORtmeryf2Ta+FVpKvZh9LD0fqko907V6vWwuD77nIj49CPExvnuyr71Z6BW+mnwAPgl5Pj5X96w9YzRXPZVfR768e3+9ozYWvstlDz7Bk9k9r3/cPfJICD7HR3M933nBvm65Tj2SsCq96uvFuoqIrD0tpra8zI2DvT9GQbyfclu9HDwCvqy2n71Jche+pDEIPrWEVD17YBG+AKQxvD2aTD2Xcbg9u7SevXgYAb1k39g9eRqdvWSkgr5WfGs9nck0vLIZgD2lTv4968RovTzhEb5rUAS99W4gvp0M970r4Pq9dXwNvpiEGr7kUqs9fBprvoR2az0cGe08vikjPvp/Hr7vvrS9gUklPgh4pL21okc97f7xPfOdvr2ef2e+IFVhPoKU0z2ZtcQ8rDy4vYbeqL2b1Oq9gqw8PRTRqLsCRPu8aK/YvFqHQT4tgi68TSLKO8lyW7314nK91U+jvSbHhr3eCQa9AjfFPQTFuT2NtqE9B30svueC5D3LGWs+7GVtvise2j0IPPc8ixj2vGw8fr18WfO7X5ruPHF9QT5pBCC9LqcDvaSRqT3MAUI9vVARPjsmmz0Pjzc7EAoHPgmAUr44abQ9bNarvSjpkj0fpbO9qYGhPXudLL3IBDM+noyEvakJX71FrII7Pum2PaSKqb0z0+G9K3iyvPXsND6dBoq+8/yTPGAO8b2nd7+9lywIvYeXSr0MaOy9nhEZvhzV6b2ZNbe9aYwSvYnpSL1NGjK+9VnJvNv8fT1aCrY+s23sO67v1D2JpaO8oG06vJ4AED4pMtS8X9rQvSElwrwpfG4+2MvpPOlwtz2d+ti9jaW8vUGs8r0/35E9/v/xPbZWtj2rITq94XhzvUkPgDxomgm8sVaqveSUkL28D0a99/C4vE1CmL1Ukiw+mP0kvZUpTj3rg5a66LHjPFQHkrzml5O9KK/du2oUQL3Swig++lLBPbL4gr2RsSy9xi7wvYIk3z2q+909fprHvejKBr0Tk7k9JYhdvfGM67t9yZK9A2ZfvSq2mL30mdC8MnVUPT+e7L1yyKm7na4HvlJvBD01z9S94Sz0PYVylz0eotS8L+wdvsiLlT2VGug9xJhwvVjhZzzpqDy96wIEPu58VbxuLP29ieaNPiNrtj2+VLo80qM3Pu7K1zxJCII+Ig8dPiHNAD2c2ts6sX3xPOtlmz3ay6O+PRyOPa91Ej7H0qu91QQyPd0jN76Juii8dWFgPLmJI77pc24+CxdLveGnDj66RLC6Yf2pPDm9bT3LkrO8ndFbu/eTUL4kS1s8q7iAPueUEr3Z4oE90XqxvS+eRD1trzs+D8u4PdgP8z0qgIA+Ir2oveXhCT65Q6W9qhrWPeEBYjwyVMi6sC0tvZ5T0DxYeaS9K+AUPYjW8z3ukyq9Sr+Xvfw+YT5UVSk9Buo+PZ5qJj6kn767iYRdPXv947224h29xGzlvD8oGb53Af29B5revTR2JL5fe0y+r/LLvVzzDD5rPIS9WP+OPKRTHD7LP2K+HDW3PfpB/z1IKSc9tlo1veOIIDwfwj67cFFxPfIuGz0tlrU9RmxMvXVrdL63m/o9iGtCPT14sjywTQA+75KdPTN8Jz1YBJc9zLgOvX8m270lkJs88XQkPjXLkb2Dk2o5kcQhvdvlEb3nSN+9cX6EPbf6Eb5A9xQ9usOBPF71/71u43S8m/RAO47WFj5BKj4+fYWAvCDQYT4Rkbg9WVzBvNMaQD7m90o9PTiNPVbxTb2YxLa9ffG6u7hAX76+kIu9zh7MvUeBub2Vb1i90JL0vJMCUj4MMWi87lnuPWFBWL2ymgG+aYc5vRgruTyEGRE9pw1xvU1zBb4tBQo9nLLuPUk45jxGCMO7mzUAPkKqIz7KowO95S+OPSFGbj4Tmyk9WGI6PnN69ju7oOe9bUhovBJ8ED644a096ww3PIYlj72w3uG8jXRgPTI5fT151x0+9SOkPYZsPj2mW9A8abpTvoWpobzX+ky9CNG4PbJiUb7CM/k9N36DvlOG8T2RjwM+RN4DPD4HWbycMKS98dxkvXfmOb5i3Do+ExrAvPpIAj4v4t696JxivpfVkTdq8xY8FcNsvn+a171WrzO+cr/OvQMhFr3ymwg9N7KcPGO0Pz4tugw8wR6PvVEPET3juOw99lHxvfolPT6YCii91wA5Pu0DVT4yVFQ9+AwSPhBImD15MNm+j+iHvQBwEL43lzk+HTqQPgoqfj6oBXc+5ICivlhnWL4GslI9YhqWvmdRVT0wKoS8KIzvvTBIAz7RnXy9vUuCPX9rpLw0vuY9+9ZVPpo6Sb6P1BE9EBKEvGYDGT6nuDq+Y6TsvE4s275B93Y8e863u9vw3Txrt6s9JKFUvig1Lz3Xogq8gsJqPduYhD7KN3072ShovTcSDL033V8+8m+pvbcSkztkXx++9ip6Pdi+jz1thZo+1A1BvUEEhr54ebM9krFOPRVqej2eWfg9/a0Kvj+pejw0H5y9F4qIvS687DwcUzC+1llrPhKUrj0aZjE+zMAOPrTtc76l6Oe9h9IgvbF9g72wqqW8rVEYPrGglj2Abh0+H1bqu4Cuib56nRe93LwRvnQsjzkNqDy+v+ZIvfq+sr5ViAy+Z3B5PoR5AL6F5wm8DdpSvWhzND2NLzQ+N/f/vWDTTr4zCRc+DDPSveWl9jwLFaU+X6YAPsK/nz1YnmE9GhV5vnRDQT46+jo6iSAHvtUIaD7f++q8Y96zvIEGhL3l3DG+BFpRO4iLlL6xara9W7mIPCvWULyVrtQ9IDMivSIn5L2Vhgq+Mqo9PWTtFj5VSjc7JH62ve6EDr50mW++5sXIPefGgL4pK1k+Izuivddlaj0XeQC9/pALvWZRwz1FMQU818QrvQs1Ez5iZz49Gv1PPkW4zr0ajCa+12QpPshyMD2o9ec7nvl/PX0JiD12I5Q+cBl+PtmKZ7wSwNs8Dpd9Pt/E6rzkfUG9JzBDvTyRaz52Pzo+p06svSLZWz5b2OM+MnTgPSF/Mz51hYK95A0kvR0ysT6E+249thOYPbvXlT1RgjY+lTIpvu0Kub2zjsi8tjNgvlsZdD0A6XI9p9tBPvZ0zz26WZw+jcmnvWZ+gD5tmgW+3RX8vJYEDT7hBkG+KUyCPCQkLL06ttC9QlNKvtUkPj5ZPEU81pKqvXHSuL29B849IpqcvaOwF75T8M46l2QRPVEJg72UQaC8lt8HPfkjSr7u6FM+w+EzPYGOQD5wU5u9lJy7PUaiDb2qxIW9dS+DPJgtTL6WAvk9jIPnPLKH4L7pjpA9kO8FuyJuYb5NHxa+mktxvkoRnr2VHx89Jdp3PaKqAL7Y4Eq+kXWBvseJN73pjWQ8S6bHvTfMvz17EWE+zk/wvNdwUz3PuC89hQ4/vtCMor3+fWq8BXduvq0wpj1OSDA9/p0gvAklxT3to6S9Svi7PfLBML09/Q4+2oNtO1HAjT5mS18+LDObvA+HvLqWt0k9msU8Pm9bGr1lo4o9eC2LvtW3h72TVYe932+IPBMkwL2lcAw9pM4fPNySfr5IEBI91V7ZvY6MiT0Sgnu+jN9oPslDoz2XsZO9Id72vTsrwz0q2wy+jvUQPnOQXT30SkS+wAcyPqltTb6FzzE99zICvneP7T1ypJY9uYJmvNm0uDuOhpy9t6xBPsuHxzzASiG9rVX5u22NPT7xigA+sjQ2vrGdGj7TJnU+7updPi/Hpr1+f1g+H+SNvVysor5o63k+FmwKvXhdhL6/KwE+k2sJPCHedz5tHL69rdxRPNCgrjum8xe+g4BePSY4s73ZaEm8jvrBPTHl373MOkm9tGaCvvyDoL0NicM9aItUPot8Pj0gpZc4CDVgvuIAlb5oeHW9ndSIvihjdz2+4709vi48PejznL3i5le+DsgXPCt5mD16COG9sypzvsLHC7zliDY+2SnFvXjZSb4OQ3Q8UMvMvcj68L30rAQ+ZDOSPRqtkj3JohO/qLyoPkyGDL6ZgeQ9v+5mvWi8BD4MVqk9wyhJu6ZXoj2Od5K+tXzzvRMhcT510Sw+rNpOvPr9FD5PLh69bxecvZljhT2NGDQ+3ocuPUMz3zzIg5k918H8Pc50gr6r1NU8GojhvRWs7jrFjFA9r+HmPRRGWb2Kq448eNZBvft7Pz4C6Fq+bRWePaIk3b19eIi9p9eJvsiFNb1evru9AjKZvYazIT6tJZk9W44DvmK7Dj7PcQQ+y8Gmvs1CrjwfeTk8eiQVPWHXjj2cLyk+NATVvXCrBj4m2KQ97wgavbirpT3vcD09Y0ThPDh8vT1aGlu8p3ogPkN0mD6omXs9B1uivNI/8b3FVrC9y1uJPeZ/g77DjFC+/ncEPJffTrxICW8+N0USPeg/l7xI+R49N8/hvCf5Dr6VXVS+isD2PfOAJb6AsZg9cGTlPd5EQr0KGXS+u1BDvno5ZT1LrSM+zbaaPaOajj7ezO47RPAoPp+E7jy8rAi+ys2HOyZF7zxJBPY7z0GqPONBSD5WDKa9BQ9ePkczqT1N9vo7qEgVvhyE4T2M/Ng9rz+tvU3Xmb794BA9vk2LPqeSGz0teGO9xhbIPQS2mT0oopq+3jJqvo9fET5ifJA+4tE2PkAohb7yaa+9zdCLPoCQZ7w08Jm+QEiaPukbw73W1bO9WI07Pk78iT0uijY9GHKRPFf/zD3xjIe+4EoFvdt+U77jKbY8v4g7vZbf6z1fc9a+jq9dPrPNuD3/KI4+gbaSPQp8/b3Erh0+XZLWPFFv2b0q3HS8xkiXvacamj4buSO+M5mvvmJMGr7GyAS+m/NlPcVHiz37rwc9mCMsPUSYRj2rtv89oAhbvtd/Xb7azgS+aNCtPNqCIj2yHqE9JmawvfsFVz3bY9Y9tVkmPZAaKj4eliQ+WgJhPuUdWT1u1Jw+tDLwPcG9Lr6ZlZg+4T2lPMiXML4BVny9xl9SPtLEq70SzaW+qtMqvJpfR71xjFY+MJsWvr8ZgTuB8/290VrgPI1p4D0cs68+Va+avKyqtb5JVXa9TV7CvAX8OT7u+zE9dmWrvb5nsLyaxHy+YDFdPb92hz2WpiC9xAdkPUC4wj12hZA+7aynuj3sozzPesA8ahC/PXsRFj59H2u9+6tFvRbFbT3Mo2e9gS5tvuFbjb7CHeS9KX33u5dzOL51GW49pWa8uyYSUT3dpky8Ifk9vgCrOj1cOSK+eREZvowNZL2VZ1q+Jhwqvghojrz7w5k9Ix7aPcXx7j36HkG+4umiuwS8uDz8mdA+Twg8vtPFBL4TzJ+8KPH7PfGnFj6XcAC/1xHJvb67DT4mgZS+z8XbvprPAj1fQDI90eorPpJ2DL2fYTC+JlkYvjMlFr6IGhg+Ha7pPcqtSb0DRZ+9SyWMPaWCRr59kmK+qvKOPlMTgb1ICre8Qax5vpq9cT24Lxk+7OzTvUdlDr7obmI+RyGXvPoOGb0Utng+A4otPuGsb71tgPK9unCyPvUdHj7wsxy+wEY3PYF8y721Z7+9SImJvbUxjT0CBas9GlUrvQTJKL6lv6a8upDAPbY+jr6boEA+QbcEvG4vm7083V+9uPhhvSW8rbxVMf49h6GcPjXZOL2BAmI9WskuPkdF9DvIbka+Q2ekPa9aEz6Zeom9o0P6vWyxFb4mnKk9wdv5PXQ0Bz4/pXM9uCYNvvb5Zb6Qd1M8ExREvreQFT6tBr68IoU5Ph1CJL0g8Ny9XPTqveP1azzwWvG9EEmSvdhsFL5dAh88BGnePSoWvb2eR6y9tJHBPcsR1D0UCIc98y4jvfuvhb0q2Jy7YFiOPqiKGD5FPIC89eiWvaNCej7ypt49775QvQf89j5tlTE9C8HnvI3ijjx45Ik9svNBPpriBb463gM+3ltGPXxgSD0NfhA+yTfZvILJZD4LKCY+BP0aPrSdZr0yhFI8x1gIvuTQmz5CgGS+fk6pPY0vw7x5SME9CsPaPbByCL5+RgY9C+Ezvg+5YD3zzSa9jhoZPmlrCD0oeC+8hGPwvSEVn7ylg6E9pR2XvdAbQT7Hybe8IMHevSSseDy/UwE9yZ6TPfBgCzx2UEK+AupEPSIx2r3wT7O9GmA7vrek9r1r6I09NmDkPCiN0rz8yyw+5+WIvgmBTj38wwo+S94+vuAFL7zkufo9lIWUUpRLAEsBSwJNAAOHlE0ABk0AA0sBh5SJjAtjb2xsZWN0aW9uc5SMC09yZGVyZWREaWN0lJOUKVKUdJRSlC4="}