{"metadata": {"name": "Emma Violence", "description": "A British cybernetic assassin", "uuid": "9ae742dd-72b1-449a-a1cb-722109ea6e7d", "epoch": 1623343566.218886}, "tensor": "gASVivEAAAAAAACMDHRvcmNoLl91dGlsc5SMEl9yZWJ1aWxkX3RlbnNvcl92MpSTlCiMDXRvcmNoLnN0b3JhZ2WUjBBfbG9hZF9mcm9tX2J5dGVzlJOUQv3wAACAAooKbPycRvkgaqhQGS6AAk3pAy6AAn1xAChYEAAAAHByb3RvY29sX3ZlcnNpb25xAU3pA1gNAAAAbGl0dGxlX2VuZGlhbnECiFgKAAAAdHlwZV9zaXplc3EDfXEEKFgFAAAAc2hvcnRxBUsCWAMAAABpbnRxBksEWAQAAABsb25ncQdLBHV1LoACKFgHAAAAc3RvcmFnZXEAY3RvcmNoCkZsb2F0U3RvcmFnZQpxAVgNAAAAMjQxMjU2MjY3ODIyNHECWAYAAABjdWRhOjBxA00APE50cQRRLoACXXEAWA0AAAAyNDEyNTYyNjc4MjI0cQFhLgA8AAAAAAAAEvWavfD6+r3Ehw0+7n8SvUTiwL7NBzS+EKXTvD/8Nz0u7hs+yo+OPueE+7sKWQa+wcdePk2ysr4RNr0+5KBKPiG9Fb5T6Me9TPAPPmrjhT6Kh7++hQMgvfi2Mr58rVc9U43Fvn9hFL+e55s9lfIwvUcFbz6qiYY+2+A/vlrjK73p3ck+MyaWPW79mb521X69R5eFvicLC762ZCa+T7hQvkS9jz4lIqi+LDbTvXm6/LwP89698HLlvDhpKT7I4xK+/MlWvs6PPb6mJ3E92gudPX5F3T1gGrs+HT/dPQBLN7497q4+0sU/PmBOVL0NEPY9JDVTvXmdfj2YoYQ+hbvIPWM4k75K3ja+fq5dPlzLa7456tS9cW4lPrVVED3m1r6997YzvsE3YL0YrbS+kEjtPtjIfL6Tu7+8HZddPuqtED5i2QC9w5xLvuugBT8F6xA91QIkPddU9z168dC96aRFvg89hT0gsBy+nJwJvxFLkL6IHA2+avjKvhqaOTy1aa28ZnlvvEi3xDwxhOm7K/+EPbsJpL6w+TW+u4TUvVv7yz3nnKa+F02Ovg7Ghz3J0+g+yjGSvi5yOL6KJUa+8+ijvtTvVj0wsHg+sr0KvVuIyT0eZKA+BArwvRoEgL43L4k+u4Y6vjx8oz4dvfA9meDvvUoxJT579Vm9EfeJPHHuJb5RBsO9usYNvqDfTT0W0II9Av2lvTEvgj0OHky+XUnqPWPlaDzFRiA+UYocvpIjlT3gShE+C1RTvUlzsL5SoqQ+vvmmvRDMuT5fSjE+K3SNPkbNyrwBhSg+1NOoPft8lb3ocgW+jJxsOyGFQj7UEde9nsVZvrwcAL4v7B6/K/i6PjlACD7V7j2+cmMFPoC6Lr4CQVG+Y5taPoTC8T50DjC9LL9fPjbKp70OgoO8fmSxvNFML7sEHO6+o6K3vNMZkL6u2da8O57sPU3Mjb7JCJw9/xCfPkZmbz7CjOK9JrmHPtzDXr3XMLU+az8kvvgx5D3Xio29AS5nPV9jtL4IefY9X0xFvmqNNz6eDD8+OVdsPGUDIL77Fte95n+GvkivL7x2mbc9rXzLvZLEXr6KgX++8zorvfAIpL56J0u+d7KHvvBbJD10c4s+E/kLPSCynT7Yo5g+EjgYPC0Rar7ebmK+XOe9PfvxjT7Z2qI9oxggPhI0Er6gWyi+2XLJPlkSoj0PBQO+Ro0dPoE0Uz5zb9A9ADsAPvoqp70WBKm+0D6UPnbPm76DxwA+iww4PpMYhzxLDli+/6ugPiaelLzNc6y+8jOkPThNfbxrV7c9XEP2PaOqIz+LoT8+hX4uvlTVhj0PiDK9FPWgPhdpYr6J3ae+39GVPEtYf7yW2gO+vj86vhEQPz1aZJG+HSykuWDCvr0aOUK9XVAIPuHUGT8Y4HE+3xpPPapU+70fQVm+wzGovcnr/j1WT7i9sqERPtVWYj6M1vw8hKmpvr1Djj3QFVy8aDHAvSEvkD6DFOM9tEfxvVFvrL76c5W9gNGrPcxXkzzxslE9UlEqvvBnEb6Duyc+LbRYPnujSb6KCOK7UKF3Paxvmzy90cM92l9pPMZGory4DL68pcQSvxtwaD5OHQ4+SKjzvek5kz4rCsG9XGTHPTVB67wuaf29ci0LvmzzEj4o74E+lilaPonFQT7ozCQ+aRsxvu9H+LwtMPo90mH4vdOGoT78g5o++QfKPt4APr4PP5C97nOSvsRJyj3gWJU9D+YevPHFcb7qTZO+Zw5CPpHUMT2nhZQ9Zt+bPjtx6TzZwKY9sR9PPrtu9j1r4JC9FJqDvvirgT71vDA9YxdPPbqvRD6KS4Q9RHD2PL//j751eq29xZAKvYtl0r4CaF46tsFvPeGBnz39TKC9gz+Evk6Nbr5W7MQ8waKrvWOKQb1/+ZE+/73xvQlFhj7I3OS9QFHZPjDdjL5qYBW+YALmvkz7vr5g6wc98FfkvZcI8rxe6C2+vREkvlAzUr7bpJm9BRduPiV8AL7uhpi9L7fKvghi2D2mICE+2GtPPlUSZD2EXAm+sFuJPg8CiT3gKna98PFWvnTkIj5GV3e9oWKyPW1aZz6iWsc9kCFHPZ13Sj7Oh1O9+0crvreOpr0YGVq+fBO1PHKpdj5FpWM9ZZXtPaY+Jz7ndwi+nP2DPpWKgb6KfrW+LGtGPVSUeD73t8++T4uvPa9ulr4xzoq8P/EhvpBRQb6/o82+AgSqvSo6fT6nWoS9ZUniu8L2cj7KomE8n72WvmQBpT4/ZwG+cxkZvlvgmD47wxU+bltCPo0fgr1Wn1u9sAavPlT0kb6WDzI+ZwTaPLLX+z5k9wC8eD0GvobPNr1cwRY+/tXjvRaFwr2irCK+FnZ7vtW70DxMoZq+0XUJvkn7g771Srw+wjKPPQpA1j3Uu8w68YigvQDPSb5vgc89MYDPPfYxXT43qZq91iuOvem7OD6hkNA+RRIUPpEwAL5OkUC+/QYLvjzA5j04fAG+sJdDPpcy77y5OnK+rhujvZrnZzzp3TK+09oTPLXxwLq50lY+MQkXvvA2orxAnQM/hv+nvXhVXj73q1A+T9klvvr8Pz7NW4s+jr0nvrqtr73RkwA++QeCvThbl755PN+9Dc1oPssElT1a4Fc+AACDtNaaiT6gi+y8kWxgPvofhb5QDG87UUHgPkzS67w60gi+AMtovpXyWz3I/5s9YBE6vBG0ob6VlKE8NoW2vhntZj1v4gW+ZG8EP/UxWT7E4Lg9eWwoPuUUBb64Sec9XJe6vcPhd72qywU+4/uivgXA2z7HH9U+nAiVPj+Dgj6iFs+96dbfvcZvHz1IcyA+U7LkPTJ/yz7IHsQ6indOvWOltz5mgqI+HMUivi5Rfb4Gtz89mVXbvfK2H74efdu96NIsvrPLlz6mXzm+iGmOPbMfMT67bSs+Rqd0PiNGdr6Z7xK+HzFBPmuX2b7FtY2+ym2QPmrTTr5qxka8e77evRPgEL5wyR68YNeAvEPqEL5S9hu+8lpDvZSQfzyK4Ww9XNgLvsRW3r01tLc9VqoDP+XtED2vOc08Zmq5vOSTsT2z/ju+Q+0Dvzlbbrz+AJ4+CrSXPT4gEj70LfA9j0c8PsyJKr5jpQq/tgcfu3iY6D6+ARi9QcywvXrXh7tdlR+9zrXdPMTLTb6S4S2+1m2SPHp+kr4H/Uo+NPxBPkebyj7T6zO+eiifPBANt7wJ+cS8ZtMYPnmnAr12Sey95gQ0vpKFcj6Ki0Q+TWA9vhxS2r1jpN69Uwi+vq2WmT2Xb0k94S3nPq0VNj3pXLG+iASzPV99tj6gKvS+8fhhvoF3DT7ZuOy+bZ+evlBkzb3mK10+xcjxPW2MAj5N8NS9sbvLvfbiar7G2iG+v3m2Pe3+Rj7VAGE+YcmdPp8YGD6HdIQ9h3R6PhXHUT7nw4W+sNflPpk26b0RVwi+r5D7Pf8sqj5CBRe+NL2kPuXMaj688pu+jczxvdygtT0e1hk/xK3LvPNbmT3+0Fi+V/CNPKtLp745IIo7muF8vjP7+j6oYku+HBEfugKLpL60J9o9waq+vQWHYb5zkx++kwGYPB8qM72mLmc+/e2rPlZjATz2XHQ+3sJzvvL5o7z18po+hiLRPdbVHr33Ki6+mmMxPrUU1j3zaho+u0hUPX6A4z3VrIC9mH2VvpU8YD33ZSA+PfGFvSKlk70VKpC93InZPX0XlL7wZKG+TjhevfSqaT60MhS+w11bvnCvD74VRVS9/Ps2Prxl8L3D92y9/jsivqrODr7hr6Y+WsPDPo9Ayj0MFWY+64+wPn2MXD9eYUm+mTv/vbibpT04XNc9E9azPuCIkz5N2TQ+Ag/DPbAJdj4ug7C9CQWPPQza9T79UMG+xd3YvftebT4DX6e8jheVPtTGSz56fwa/OsfrPqvItz1YJOi+NeqLPm8ylD30rQW7jjdMvazvyz1f0jG83NuXvBjaB750D6E9lhfWvhAxvD5C0y6+aUofvciXnz5nRuE8Tfz4PSnsWL56wRm9pEwtvgy7D76vsaS+I8JcPqTV97wObo6+rqbAPSu4Uz0BL7++FVbKPgmtybyubB4+3z2VPbIZM7x99p49er7QvcI58rrI5PS9J3zCvU3ZFb0XTw89bXrCPZ7Kor53I3++/uOwvWIzuL17Z2c+LtsCPiEPDj1RRD++fYZgvNGXoz0GN7g8lpY2PoCGVT5P1kW9qEFFPqeyUrz5iKI90he3vQAirbyeMvA9kzDIvcdpcz2/faG9q/B5vg4UIT28Ekq9riJdvr1NLLsjeCa+n4OMPUgszr06sFm+ZwWmvtyLcL36OVi9saZsvvZMAr666wa+fQk1PoSrQD4qUSo+JTWgPiBe4D7daAw9FyABvJIK5b1O/1u9HdzMPcZfBb4UxjI8isjkPbIWXD1QZBw5q0ysPdWxnD5ZHs+9r9DzPfpdij4IpQi+KqgYPgOWdz3iYvO9Jta7Ppqn/745rhI+POuLvmzRQL5KC8u9QjGXvdY7KT6+3S49UfqwPc1D7r1BpY49F3e7vQq45b0PQNQ887rCvYVryr0BLNg7HBpFPvYF/j17h+U9wCYgPkhfRr3DWBQ+4UaIPYEZzz5ZESQ+7CcyvQ161z2CENE9S7QBPvdbTj0kmJu9NmiHPlv2Rj72KtK9aiHnvYJ/KD62mLk+HY4DPRpMcz2rS/C9F4ejvrOy/71Ix2y+AUlpPvFQir6AMeu9OqnNPK4/5rxKuFG8MF4/vUwK/70JTIs+OXPAvXZ4FL61SiK+tWeAPnRbwL3kUSY+HQs0vscMOD1BXbQ9GrjSPGAkGb5TSio9hsqSuyHkOb4u+UG+nC6vvRDYvjyrJMQ9uJB5vhGSo72DYzA+7gJaPrNPvT4cFfO96ywqPbkVcb45LkO94iWkPe+E8T2yNwm+p6QZvgZyljw+fKK8nq8VviEgOD5yMAG+4oEvPgtZRr6Y6IW+eB9cPs6SNT7L1I+75yAivH6ayT2oZN485VtOPj2gLz7Fqso9H+tLPkspjj5+0d687On8vdnibb0pQVa+O/N/PrKmTb0X5pC7FHsFvLb4Tz1eQ5S+mDb8u0E8ijpLtko+R6iRvfVf9T1una891WlhvlA0F76RCKY+YWOVvvwcI7xjv8E+bvOCvcCDT75sb8u9D201PkG0jb2f5qM731U3Pif1uj3vzhi+ukumvS38sDwZMGC+sBoSvhncsD3J6xe9os6fPFNcBz6NurI+1+9LvrAGtj5vKrw9KuAfvt9xL7zYbFS9ks/BvZBmmD1WXWQ+XKbiPKxwMb7fGj6+et+PvEn67r0am9C8v+fuPenTmD3IIos8RfQpvj6KnTtCWvo9xF03PhCjDr6Xer49YavoPbmImT14V7a9V2KSvf4gh75HRlY+gyUdvuhKSD1N1zC95WN6vtavyD77eYe9vOJ1PUWeWD7WlrA9vW3dPtzwq75Lt1I+6/GfvvhTlr5jOjY+Ri9tPbbznr2n+Zm8JM6MvVBBwT2kNSE+wChjPYzV9z6xsYA+APC+vQrNKT7kQ1M+wdxkvrux4z0ddlg+1iLUPgLvmD3d1c4+gNmhvmDS3zzlXDi9ngiFvTox5z2zuRM9rDLgvFUfJr6nZDe+VEf1veB2tz7JaRy9ynjfvqSUhzzui9G99OKyvrjxQj4JgEc9gJN9vRIBKz0l/I89yzkBPVJenL0KkUA8uffTPCCPtb4CB749Z3Ykvi04Gj7G5oE95GPqvhf0WD5hmoU92J6lPY//Gj61bpy8EZYYPqtbWb5gphI+fcCyPgt1wb2CV8u8nP8BvtDDfL4HQ9y996sDvZe05z2TRik+diX9PFwzgr6Rrig+hsfyPXiEuDyYFNe92Q/HPfiQPL1Yyp69Y3+gvq24pLzPv6w9HivcvHNLor0OXb686d6gPIV0Db1nYEa9ZmIjvbA65D3kE689tHczvEqi/77aKKm7NZxbPta2lD7ePmK8AjK6vYMuNz6FfYQ+6/AOvtx8PD6/sP492NvWva94Rj5HiEg9yVv0vZ/IkL4Ms1W9elE0PhM0ND1BH/+92Zxavo6pm75qEOA9fTlbvoGSP76p4Ro+bQlRvjfVOT0mI2I+vlLuPS/LGD4EdMg9WE61vQZp4D1YAyS+jsQrvXkeib0K9O29wkgrPh36h71l0cm9MXVGPje3Ij5ouIo9SzHIvU6thDzH4G89CFc8PItsVD67WQq9WfJivVk2Jj2MgA0+t1uGPb10C767DEQ9K6ehPheYWz4eHJy9zzRzvrF1Lb3NH4Y9t1W6vWmFVb71TVc9sn8tvpPuxz39wn08G307vjGGVz7Bwzg+RZedPP6w5T252Ri+gNkmvhdXGj49Y08+DRmuPh3yar1b+K69IlCjPs7BsTs/5dk9LAh3vQ+/8bxYgFC+/UViPtGBmb6jFRA+vy8GvvVawz37Lj49nN3OPO1zxz0N5wg8I2S1PMClm70EiJO+nKLuOftJHr0p++69gfGGvC5TCT4997M+ro6dvhoT0r1mmL89Ni/9PGp5y702KW8+vzYgPtypBb7zZ2q+uW1mvvYpKT6BD1G+jUiQvgus3L2NxZC+EjtQPl0K3T2zbw2+226SPW0wGL46Dpa9IWKZvhrSDz7whnI+gpMYvhWb5jyuAWw9EM0svKFzpz3Z9By9fgMzPWD3sD3OPNe8oHFWPjs8G75IFEo+MPH4O5m2+T3+pU49SE03Ph1iED1Ucp+93mQAPc+fJb2LceW8YYFNvq4IPL7/PXc9DlrmPSUiOr6iMoG+BPgMvhoior5b1xW+0+VKvRucIT55+XO9S2jbvug9dj0XB6e8KZcqvcmqG75oNi8+Q6oivZGKsD135Kw9P3FtvvAgur3zMI29GWNEPVmkrz7H7ls+0c19vr4EOT1+7XA+3WAePsuIfL0EIdC9CRYtPgW6czyL7Aq+I2ayPKJ8MD2XR7s8DCOJvqIRkj31igm+BdJVPpikAD60MDM+uTbevT1VOL0Y2s69DrwevlNdxzwYc8M7k/gOPuK+6btfLy+9dyzgO0cqST6Unfq7FKl5PpRqU7zVgTo+SAL5vC6Tq71nTVo+2IJtvvb2yb3y/os+4h/XPai6ML6kb7Q8arXvPHenvb1Urnm9iIXcPWxoHb5tRw+9rf8APPVCtL6O1RC+mEmGvvZRjD6iQLK8MFgKPmIlzj1w9Ne8uX1NPukiLD7j8i8+IhnYvRP3eb49bpq+mKkGPjDvJj4fZjg+lTo8vhWeZ759O+k8eZozPGyEhD7sQ5m+iVcLvL0pz72974Y9X78Mvp5EgDup9gg+eu6NvpbaYjyDjQy+nWVxPVZkmT7da/o9+JZaPrxloD0ndRC9omojvhLAiT10ArK+14WjveAJ7r31jhM+ZouGPSHrWj2cE+6+2w6LvqLNMb3mWNW+Wpg4vStqFD23/gc91QlBvcA4I74Dmt+92q/EPXFd3D6l2pS+R8u5vBcu2z0NXpW+avyZPcukFT7dyVY9B4wFPkDzyD0kM5U+5n1sPv0r+D2+qTO+MiuGPjRZSj6Ki4Y7pf9zPoAFLz49AA49JN4fPp65Ij3m51O+diqMPAIQ1b2I9kq9yHUpPeCMtzzQUbS9ZXfgvRJZBL0u8Fq8VUh4PlIAXL7REye+xChmPTp7zL1umnm+jQtOvSYx1jylqw++u03CPcELwr7lsMW8geagvXfoeb2276W8/GJIPi45LD4a51Y+hsb5PJnWwL32VZU+qTccvjrdRr6zTgK+4TO6PnmRBL6WBk49LTobOyugUr1FOPe9KAV4vi2aur4Ze2A9E9I4PoLfpb4tfDy+dS8QPmDZJr1sKIY9SDVavb+2gzyz5E29dsfYPO4Kr73Iuzu+zHFuvj/b+z3s4M899KsNufGBHj0T8Ne9vPIivbXXQj+Web+9vqh9Plr5g71arvC9p/dhvULg3L2t31A+4pM4PD+U+b5YfWw8dFztPoaubjzH+RY9g+HCvQ5vNb4zD3m9W6UDPcSS970e30g8GryqPCCMwj29T7S9FzEpPYPU/r2UgNw9tgGfPNRxdj2UfRK+MvQpvtfDnr3Osr8+27wVPq2pCL72aAS+kHqIPn6fWD60HBs+0uVevVbk7z0Et5i9ekQcPq0nMj5WwoQ+fWpavcGeEr6gBhs9O+QovR8Cqj2k2kE8ulRFPq4UTz6H3Ps9VK8bPVC3qb0NfsC9muAIPmxgVL0IjSU8XclJvsruyj2l3c0+bNkjPt9TujwNrMq9K+6ePXPgNb7BXCk+/byKPbXAnL5Sz1C+k6dtPbkdWT5YpxU+MK4avpHKQ7315te9jDlTPhbrgT5NvXO+DCtovZH/iz21Qv8614yXPuYg6zx/lfi9v+s5vbW7Nj6SC9S9RBYovu7xTL2kxMe9+SGJvW30L71Ezem67o+pvpbqUr4FotC98p+OvBtS771r00M8/3aHvQbXzryqb1s+F56JPnZT/T213fQ8wUREPQdQo74BR0a9CY6Lvc9PnD7Z17i+xze1vZP3mb54640+Tn6BvUZMD75RD2o9SUBkPYvFjD5YYRO9dFRrPrGBkj7t4aQ9zkGdPsBRFL6rmFM+CaQYPt96w73A91I+A5kxvs6UhD1a/IS+bkrwPS2qB74jd7c9BHZMPgf8cj5g5U49QiudvoOfhDxXTRI9eCgDP0CYLD5BC+a9KAuoPlFmib7Lxxq+02RyPGNyKz7QsNG9VGQ2vmDewjwoz1k+U0+mO3ZNGj7RTcg8T/aKPQh3rT1sJBS+Q07IvUShtD6FmJw+g5prvlMKjD1siuM8FljHPXc+272Be/K97QyuPURQmb1bIiM+kAekvorVIz2HpFI+pwM7PDOFjr5XMxK+jLcXvvCG/r1ZySG+o3/JPOn7nz17FQC+wyGoPVJyJj2RWYG9HjwkvTO3GL274FA+BptzPbRLIb7mdpu857C3vVaCdj5yUSo99T3QvrdgXr59ZQ8+Nij8PaOCzDyEaMq8MA5VPoe+rr1GvUo9XamGPbMkjz6KX/O9u0e7PHexHL743GC+G5lAvlxB6bsuOsA7WnUHO6J4fz3ai/a9GSJIvZ6efLvgAIu9XItkPn6BNj5ovQW+IosgPgO+Bzw1DVI++0XpPXBfND4KuSK9c5USvaf5kD1s6Je92pdyvUwmBj3KPPQ9qkG7vQhotDsFwwa9h7gJPmePaT5ZoX08mxSDPnYb3zzuYBS90o5XvlYvFr3FC5Q+9OJ3vvDNRL1WYZQ9JOZEPoDz2T27VwK+eKtDPthvGT4r4Ze9ivedPZ022z4Zm2Q+OmYnPhiAjz42zwA8TDAHPo9z1z0McWO89NnXPSD71T0z83g+DhMkPqUjHT21UtE9Q8bzvJDRcr3Ux4a99BZWPJii8z3VyW08VXkkPe4xdb7y9qa8EVtHvRB1AT4cp925VPVLPZYXu71ys+K9x9zKPJsd3T0SrBU+SuuYvOisP72CZj0+E2s2vkNfET3Gi8K9k7kuvVcsxLyK4WA++IbgvQN24rwVSqq8Co4FPf6F5z69/2e+q9mDPbswDL6X7nQ9XEZCveKtDD4o0pu8ZsB4vpkxi72Fbgo+GJG2vfUTJj4Ck5A9gOqBPrLx2j0qUlw+SpajvFhmrz0B8Te+tQTJPbqqFz4N1bM+HntFPXcyQ75HkXM+z1RFPo/Rdr3vO5A+3Usmvl0i4D1Y24G+AFO2PBOJ9b1DQzG+ZH6Lvu8LTbyWtH2868b6u5QGkb1SDZ49z/19vS9/7j016Oe9ig0PvrbcmjzAm4O+xL7hvdrJeD25KFc+HT2yvI/JLz3dKVo8Q+DdvFvcRj4/xJg9v4VYvgOgpr50mxK9FTS2voVxxL2wqQO8c6+uvvYhZz4Ox7k+u+GmvS2xxTzrRLK9f8eeuwiwBr2jJ1g+mz+GvjwPTb4swKS8mGs+PKiAyD2iGLg+Q8yUvLXvir0W+pI+wMZSvsEROT70wnC+bwMcvnHohr1fyQS9vzaTvd3ytLzRAeM9uQWRPH2pAz1kdA27qtWPPSBasj3wnpy8ZIelPu/gSj4sisu7pz7ovfV1Wb52Zci9nvarvbfPXztV3zS+PcqRvbSigT4Dbo89G30cvqC6rj2fHSw9+ud+PFipfL7tFiG+/DISvn8QcryKYCy+hPyVPRWIR72M8u6+0bYoPs6U/z1wIEw+FtgQvRzMaz34zVc7jzuYPKW3ub2QWGE+VsesPfBcnD4ZEv89pZ2pPYEQBz7VOUu9zJTJvfAYsTwCiFs+xiX8OgayEL6wtYo7BCfnPatYmL34AHU8tN1nPkk907063R2+sZQsvjxjDT7cAOc9wBIUvkzR8D39y6E+3hmhPYaXk70/VMW8FFY1vXE2tj32zoS9cXYMvsI5bL5F3ew9bv6LvWbQLzw0uYk99pgAv28CCLwy6Og68FpAvVTlLD5U+ko+eWGFvvs7bT2rdSK+48+3PZj0a71MAAY+elegPsR3sD35HqW+RV7IPflu0r1f6qe9yCQcPgk1kD0ZmP69dXwCvg0KWb6bdTA+Nf9vPKrGZD41cHa8uSBCvui/Zj5FF4Q9D+eBPRLgiL5lKx6+bT9GPurel71HwHO90w/vvBvtWj7IoMs+ePi+vorvkL3ODg28NWUSvj0aMr1h5Ik+sNiVPZ8daD0tIFe+b4BvPR+UHD47dIC+E1mUvgw76bvd1LU8txXUva/ocz1BiYA860IePjBN9r3/X5C+r8f+vfr89r3Iz1i9nJ2svSlyGD49iRG+rNKhPWxAFDv5RD29eEAgvna7rD7TfYI+s6eWPu8LoL6vYzQ+qaPNPevUmT1HsYO98r8HPtZ3RbzDMDa+Duphviaoxj0uIPE86pYJvkUj57381ig+oApEvumWF77ZjGM+2dCXPkzYxL5gGVE+426LvfUXq722r7i7uvqoPV8tRj7yKf89Z4F6vhY8HL6iRQM+iPyzO5EeSD7prT++RLegvgYVZb5ShTI9VPXZvIpwHb6ny6O97VBiPunT3b3UOoM8/p2FPZePRT6eoUa+MVkEPbXGQr6gvcY+RsF/Ps/NpLqQjp8+Qoy1Owre3z17tdQ+f7n+vSmCUL5arYa9hSBHvYp5wL2KGV09NOlxvumEob1syHM9ySqCPjnAuz3dtC292nvkvsOfkb3OTsM8kAFFPulZkT3ctsa9OvBRO/1ZAr1L9YU9YIsyvvjlYj4F+/Y93o71vH0BHTwyHpO8wVLVPg+VGj4UxPI9/WtzvgB0J75No9C+qAyHPYY80b04Z4M9jeaXvgCUh7xkXYu+KLc/PaQfC75VqEi+2BW5PeORojwkPHW7o+XEvQU3u75Rw3e+A7xTvZFaubxLb9s9sMRcvVL1Hr0WA1I+9Zi3PVyqPT4ZsoY9fy2DPfd/4L138P+8vpYGPqAgnb2Rc10+I/SVvlUnyL09xcS8HZxNPNk65Dw8ZmM+lIyjPIup5z2emZI9XkgMvt4BerykNM++1jnJvW4slr6XjQA+L8VSvmVV5Lyi3Di+weCuPeB+vr0BuFi+8z3QPWBrFb1bCyy9v9QEPrl9Br6hWW49O/TXvCgWOT5ytN+8h+uiPZZt4z0xzjm96g/CPc3U6rxW2UY9rDtVPktC8T0EEPE9tZC1PEoJljwnbzy+7qM8vgbj/r0ho2K6MUSbPoQLCz5IROw9qSbAPCMSQj6+kne9VV9RPndBR72/MP+9WWENvoV61j3PlVI+GQU5vd6oKr6QZtI+VCAZPjIWhL7/L9O9m599vjkPFL1orDS9Y6sevmZekr5XLF0+7L0/vPT0fz1M+Aq+mCNjPvDyvD5uL0m+PLuAva6aHL7WZgU+tLIcPv3iib1+Kfs9uOgTvS8Obr1Bm5E9hV36vBRlnDrq/hQ+qC0mvC6Bbjyoi5C829lUPc7w370QDJc95eC0veSWKb7u+Vy+H8vMvHH7VDvAdJa7a3KLPWVHiL2VKWo+cOoqPjq4Cj62d0C+XV4xvpvkfL1PhlG9TCAzvOQpZD6ar3890MVtPoekAj99iQa9iEsdvi09nT0Cs4S84Bq+vUOVlr3kHLs+pFTWPRXOn77fgQc+1VqNPnIimz5nr6c9RTXTvWE7wb3OGb+9Iv+RvIUU8D3S0rO8MuMKvgR+v70hhDg+bz1lu0z+L76/PRY9er4ZPdJ2PT6cI4K9snEDvmnhAT6Kp0k7Qt5Wvb6GQz2W/zK+Zu+xPYXNvD4fuaO9INonPrv3KT76SAm+9Ws+voXOVz5YjTa+0LHMvC7shL6+ic69JZcIvzhHeT5cBxq81JSZvE/plDy1drC9jlPsvtPDgD0CD+27SMqIvFohLbzeFpG9flPEPVT8j74AgPk+ZVzyvHxwnL72N2e+8rxlPBP/YL1w5sk7Tb7DPTrZHj7Sqh09TEcGPk2btD2wwqE95ZfUvdOylz1Ahuc8aflePvrlYT7PFmW8nSlDvJRoDz3SvKG9f+u4PCBRkr1Fn3G+7+LHPczCqjw+po2+ppcHPhqlaT2s11E9ItsSPXF0nD7jaVw891IMv64plL4Yj6e8X6FjvgruJL1FHD6+LvvmPX71Kbx6RHU9wXatParAZ707PHs+i+H1PZ7KjL6h73u+wEk/vqLyTz6iNlc+HWUqPoARib59yV49m/UcPsh+TD4LX48+uVkQvgl8PT5Axm28PgpPvFn3BT/+DiS9HYg9PbVMF770swW9nS+IvkJotb3EvOq9iXoOvNrl0b78WoG+PeKtvfBcGb6+2Jk9uYUcPRqOGL04XM09aFFIvjB6ir49lrC90gtlva1gib5uh6u8i9UBP6yEtT24T1++In2VvV3mA76HEgA93gVkvkOWsT1YUxY+e/HhPRnNIzw167+86lezPbf/4TryWVY+kGmGvqkN672uPmw9ZBTNOwMnxb5RKqm8z6RsPnnHjD46QxC+4xqyveMHKb5jf4s+LLggPpcWLr724LI+OesgvRbu9734yd49VbDXPdwk0jvmXSs89kyQvr8NWjsvLCS96om7vSaNWL4mtyW9pIbjPYKYtLwCDyo7n3OqvdokgL64obA9KWCGvLHKhL70YZU+GB1+vh1j0b7ihlw+OCO3vjX7Pz3UOyQ+W7gtPjoKNr2ON3a8/rL6vQo6ZrzqyfA9UvkvvkRs372/hYW+N0GJvYxxUL7dZy0+1QfDPcafBr57ZZy8aAOsPYaiiT21ORQ8hXGfPeRSmD6ZaK08rr6ZPfLqrj2gUg0+5dOFPDt68zwxkUC+1kgJvfCeWL2PtoW8f3UdvVTMkL57i/u92PEKvuQQO77o2L8+XSQyvi5VG7v65IY+s5ZgPkyj2r2Ud/c98QQcvgqCqzxM0og85+pcvqdXVr3itAE93m9Qvr87yz7iSp49zeqePctaPbz21V6+bA+pvebMDD7Oq0A+kn2RPk2BkrxIVv6830uXvf3xj7sDSl2+gjT8vTRIWz4hoMu9T8nFvG9xKT5bLNM90LT6vff/jb4vB7a86hIXvlmhpb5Sahu9F7zrveW/270tsuw9yrJsPpsB/jwTFwe+4BEFPmcOZT11CLM9QS/qPHQmPT5YHo89WCC/Pf+MPr4oxok9E0rnvLBRg74G1hk+lnD+vfnGMr7kMIC+gdDAPT9zV75MB9M9T9umvbYHhLqRrBM9tl3WvQeHpj0p2GY+7qRmPj0WHj3Dt0O+M14GvvBnFD73T4m9uR9hva57QD5UvT29AzJ1Ph5onr7Z930+mrSNvmlQtT2stBM+FKjvPQyBXz7pqgw/B5hcvaTdgr5nyqo+5lmrPhp7xT3Y2Ms9ySmUvQyS8z0QdmG9Q82jPd91cj0miqw9R4qsvcxXKj7oWcU9Io8aPbfPzD7DnEm+Mo+/vn5yYL281IW+LoYlvhSiXL1zEzS+6c5XPeoR2TlblPE9hRQEPl0JAb6Lr7u9udwcvZw4m76UlLu99X7GvXNGOz5NZES9IduMPkvl9T2BJ+w9s+wEvm/o3DuNb9M+g8vvvdYHVTs49/K91pG1vRcJEr2tXze9T7NCPijpjrtsjSA+x/b/vfmvgr18lKU92NfDPSUJ0j3DhEm9yXfhPRHSMT4XiZa+sudAvB85kryKq408UR2NPTLZX77c+gO9Jj8nPFZFmzyPOnG+817nvSLJBL02T/A8b8YVvpWkbD4NqpU9Tz+FvZNVyT0dhK49LfQVv/3Ogb6SSUq+7l7mPWhgfL3EWpa9W5MivjCNOb5ZwBC+FALPvAaNuDxgC3M+XDmRvY8hqD3XQWM+J0FHPtmBuzzwA1u+klQKPs8qa77fB5C7AyX/vAGF+b1I8DG+VJuFvSz8eD7+JjK+hfcFvoshEz/MG0I9+IU9vqkSiz2Y+Ke+xcXAPU2JvT6mPBI7M7qKvsWrCj6Fkka9rX78PVpmSD7p+Os9UMGLvvlG571QEz49u6adPUiSJ76oXKg+oushvnKQ072waQg9lqFRPb/UPL0SP669RtYlPvYcwT2FvHa93a1mvTS4xb0b3549ZoAHvh6XmD1eb4+9cHaxvlamHL5ZQ1E+FJgUvikgK74Zyuu90kJ5Pg/NiL0QVNi8Ww4NPWo6Oj4yG587Wo07Pn18yD4erAI+CtoOPZZHJL6cCfq9LsIHvTbpOD4HbVG9KbXbPWqFwL6AcR0+7LZmPR5VeD6bYcE9nycWvVbfy7t3Jc4+LwIZPnVynb5HjRe+GmyjPUlr+L19pLq9m8CAvtNWFDy7JqY+tUXMvv8oIr1wX8m9cOZhvo9nir2oOnG94u+1PgcyEj7r0oe+BrSmPu0AjD5mfZc86CoAvtIAeL2kYwm9S3piPozl6b07pVu9LbskvnuBYj5IsQO/dI29PaUULr5pT2y+Y9MBvBbWvj2fpco9ZAY5vpcXNj0ncq0+qJavvQs6SL5DE40+JHk5PpRtHL+uc0g8sQ7pvCIZRb6KiAC+9k1vPYxnK76tdVS8DrEzPh9Hoz78X7A9IpK1Pa39i76UQ0e9MWWIvQl1Sb6hcZw9/7ZQPlIUeb1jyIe8whYYvbp15r2s9rI9/IwrPsk89D1QKbU9Y+C7viS7FL53cC8+Bp22PVPsSz161zc+BqG4O6ymq71eNBI+ELR4voXvBj49hY4+LYmpvKtvKD4HczM+h8AfPthRLz5jbQo9Q5NJPQRg5j3JixM+JNBlPktNMj5RmC+7OIHOveiZyT6OHWq+7YBXPforrr2IK9W8ChqRvvEjoT2Zwb287LCXvk1xor1Bl8++2fJ5Por89j0I/hM+vKtsPrCJDbp9cDu9RA88Ps8Ut71jPzu+5pY2PlY/rDzzrd897bVIvoCFGz0ip+U9yVo3Pt+wEr4/CHs9PUazPb1euDvxrcq94i1APSm+YL17Fkq+KLzZPRpHYT6ExOs9A5Mjvmn6KT1vi5a9y/VevlcPmL5w+eM9GZt9va7ZOT7RRWY8agaJvVM7fTzQdnQ+xIqyvqf8mj5sfZ8+MNzjPNO+Xb7Mmne969VWvlEo0r2mviQ9u5gUPtxtq70OTGi72+0ovggx6Tz99Km9pWvvPXBO17k7W3I+rWfTPjbPXb7o3DQ9u1KJPlhRwj4SDL89yUApvrD/hb5tW/A8Id6uvkFLLL258li+Dvqfvf4aUjxSCjE+P3iBPgjYeT5bRwg+fURRPklY/b3lFE2+vnx/vf+NhTx98r08sL6+PmZ30L2KVQU8lg8/PcPWYL35vkO+Ej6OPtZLM77O0Jk+ivKFPtGFxb26dhk9h4x0PUohGr4ZKlO+LC8CPiOR571joxy+yq8APkQKGD5NFEw8cWDIvRpj7j3F+Ae+1/5GvqdsUr7jDuk9/jsEPmDjarxQ/+e9KM4APnZkm76why68L70Kvd7PBr53VVy9881DPTAVmr6l6PQ90RZmPQzEbb5vWyy8GkQ7Pl5NIz5C8wu8zeJ1vlEOXj5st0e9XWmpPmXFBr7jCru8EUfbPbl9ir7xGos9MbqBPZMtZr0i8bw+EtvAPqYp6L1gRYy+M927vT7v6b36oya9253NPtQ8Rr7a9jS+ksf6vTpRBL1Rv/I9gHg2PffvPD1L+DS+cfydPgsRFj5L8Ts+uTkGPdrp/70qo6G+mn7OvYdpFD5HdgE+9dKNPc7Xij7S96++FmbMPADnEj6H8aK+VbnTPUoJMD4eziu+NyGFPm1Dq720+d494tozPvq3VL6SnS++PeWWPlK1/T4ITss9dUrWPQGBQb5sGSE+gOyCvr7sPD0JvRK+jUizvYbYC77ghSM+qBIOPqewEjypRiy9/w3NPHaI2b0SjjY9YPmtPYMonT1T40m9Jr4fvm7+vDw/gps+/ceePty+fT4oj2w+S9JBvfBLdLxg3bm9R2rWvkDHTT7eW68+s6IiPjHVdL0witm9JpZtvZKRkj0zkVo++cwKvnHzCr69soq9WBCGvQbjVL5+jVe94iFAPjawzDqx4lM+cKWvvfVu+bw/7Y0+l2aQvHBMWj2zQiu+hQ8Yvn7Qqr0kqZs+tdeJvG9ZJr0WHjk+KnLiPZwKWz6DfVs+dT1WvZjqOD75tcS+bBxdPv3QOj7lPeW9Jk4zvnDBur3WBEA+Eo50vpg4cLzgHAi+4QAqPj7TKz26eA29JQZjvd1ngj37WRq+8sQePes0hr06EJ8+dlG/vp5BeL6gcZA9vC4QPoZ8cb4BwUa8S/kHPj/eTL4ZhgI+tE2QvSXgXz6ORNU9xzgUvXT7S74UnJy+SSl1vmISmT4ZLC4+G2NRPsKxvr7SSlC9htK3u6rMhD2mSqQ94DOEPlsRgz5n1B6+hZ76vbTMlT7ZvAu7I1OmvLaAJT6gZwo+8cUxvEQ3iz6mAxc+utWIu8vK7j3uIau+uRbvvVmiD76gTzM+0znFvUC6eLwSUgi+iu8Uvpt9M75C8g++1aVVvbBKX75R618++D2EPq3Je733Lxs+qlHWvchKCj5OAiw+nP/3vPKGxrzYf9k9sxtIPSvcJT7oEmk8FdE5vZYkfj5Cu7U9pVdTvgfjmzz/DjU+Rv1bvnLuRj4VRko+Q7pqPgDfobxRpDy+Iny1PXy6DL6fRu29kUCKvXls3j1bjc09AlpoPVqzyL1+Rq0+adVKPtJwf7vlPau9ETI2vgpyJT7GIRA+uxjQPFsPuD1lBEW8xAowPYufjb1X58I9gScGPsoXAL48Fw++ExMTvlqakL6gmZ893o0BvsZeM75Apxk+6Yf5vaGOOz0QOY0+g7MkPsacPTtUrKO9f9O4vR6+Hr5Zo9W9RhdtvifZFb2SnBO+A/6dvTN4pr4XP3I+oPAAvZypVD1wuKe9s2aRvppNgzyJdiG+LyI2vX2Zyj1pDg0+wVoAvkCl7LoEMVY+MRiePYHCPj4DaES9TEWlPbqSnbzszfo9e1wYvjeibb7AtXg992D4vc+Pjb1goD0+dxbRvQErOb6Pi3w+C0qkPZhYjrxiMQE9WJpkviAcsb3QHbo9dx79vWDVdL0FP3w9ShVJvrG9lz4cLrS9GDuGPrKpkr67HgM+UypIvqE5LL4kGIA6kgENPhMpgD3fKGA9ZAC7vhceNL7N+8Y8KYdmvbPgtTzehDu+AoczPrYRHD6dV309/ZycvdNHib1PGB682nTNPMUvJz4vDfs9Hm3cvSb/8jx4lFU+dzERvF0LDj78Llo9hupOPj24AL5Oj/67V5K+vWhESD5WmZ0+p2TyPfjiljuqW/e8KSeGPdY8/r1rMGy+8VSfPeXegb6v5QW+TgUivQFaBL7iS5I9cAW7PcF1ij7lLvA9gjMAPgTfBz7q3A49M4oXPenYF73ZogQ+EKkRvuc147yjaF29qTAkvSW3dD5HkD07UFmfPcxRub3+EGA9+oA/vcKKYTy43rc99FfNPb1TmD1ugaU+v2FtvraVg7xowV886VYvPsDluD0hdxw+n4jQvQeae74fXIs9WWLzPeN1vD2UBXq8p0shvqLMNr5cjaK9jWWdvTOXhr2r6oK+Z3eEvp/h0z1OKJK+X8WDvvOTYDzsd2q97GFeO3DVIr7zQEY9sG0iPnGfzT0t8h89S75WPTpZCr7Ie7y9vqCLvm4BiLw4MgO96vMHPFrr3D0g37s9FJoVvhNDgj1ehqg+hZWBPp2qgD1907Y9exSUvR3ph72nTAU+YvqavcXUj70sbYo55zuHPjOCfzz4o5C99/rbPV6ZcL6B7mI9RyhGPrLWoT7Elzk9s7umPZyDbrsm9rc8fr19PTIcJT3g5y6+vBhpPi0LJz2a0Di+L1R8viGMgz5NFja+DgjevXkC6Lty8EU+sl4yPrk94z18TxI+Ajy9vXTsST6ANEc7yebjvbZQSz1sMl+8pmv1PHyaSL4dnfA93oHsvfOM9D13QXA+dDqBvDEqCL6LLwc+IqmZPeEogj3Fe+G+KBTAPVtrCD1KtV0+2MQHPtuPC743yFs8LYvlvdBc/D0RMbQ9VUFtPXm4vT7Ztsw9TMESPulrRjytmuG9he/aPT1lX7709Qg+HtJdPvmbQb2EzKw9/uPjvWfKDT6XjKe8KHfjvMflwj0r6Ly9qMZYPvYPfj6Bog8+7xqzPi77pjvsRSE980nrPtiLkbjwriu+pD2RPWlK670SilG+DsX/PLH1Q75bJLy9LasKvmPrxb2rQ2O8wc6svn7Onj3029G9hXsSvl67Lz7x8zI+7f+gvTlbJj5io9a8wFRfu4gfET519fo9XbhXPiJh4jzxLN09RUPDvdUFVz01fFi+ud67vLa8Mj5StVe9I/GfvZ22g75k78g9ehmyvbWuELxhDCy9w+SMvTCriD3sCU0+uTE7PisHVr4XzU09Nr+wPX7SWL66dGC8FpEEPsScAT4hYmg9z1mWvlFtGD2l3z67+VVKvu+/Jj3IUe69gR+HPt0d5D29byq+1SMePgXWIr1GOhA+hjervnOAoTu2poW9YySlPcgEjT3t4Tq+gv8NPKzUtL3LGnG+r8RWPTAMsL0ap/49wpLDPN3nN774zIm9lxNYvuhcUD3kRFA+t86gvrRSw70J1UU+SJQsPqKGzL7RH4I+6FPfPYpMKj2WCFW+pzSNPWq/CD7vAAi+25lmvq4EPzwWeLU9G+Zuvscy1L2LUkY+aZk+PYbMBb7GqR+8HeoZPrgvGr6hhMM97XCGvVQ2i7zt6CA+eMVaPsyYXr1GBgk+qGhSPczIWb7LZSs+KhJwvo9fgT511628TT9svlFEW769f3K9b/sbvreWjj6o/R6+jC7CvC/rTT4vfWM+j4cBPm7tGT7Y6UA+sl51PhGO6L1YSgO+G5goPiRdu707tAw+M6wzPSZ4LT7Nlt68cN/evFh8i711nWs+5d2hvG0mbD24vC29NELgvoyOpD1b6vc9W0mGPqzMoLvxOy6+djysPQdvdL003RW91Me0PLtOljwUQIO+2WU0vvVpJr7p1G0++yGhvcj1vT1uuLk9jcW1Pqq8VL7rtF89YZrePTsGkT0PKPE8VzkWPgxxKj1VMsC+WKo+vurMKb3zPEY+IpNxPb0k0z1NDU2+Im3BvReWtL3f9PY9uIcsPShdaT5bIH4+HL8VPdUBkL6pi4m+neyfPdUApz0oggy9MRqNvtC7yj2EDqo8hRMevjAM0zwoVOK9gaAbPZFAGL7rCGC+3qYbvZEKqb006py7H/1cvTOvnD6Ol74909TCPq8zqL2UmCY+oM0kPgUq7jvF55g9lRmOvYmHcL2dCJu9FREUvg/XKb2hBU6+XBhevneHIj7xaQ2+shWivEgX5L0KEU++SO9JPbVxFL5+UjU95OcQvlzsEL5WKlM9v/IEvqpvcD7HuIG+SWsyuwfhaT449FS5qHQXPNlCm733Cvk9O5IhPhYCej0v2/49Y/K/PrW1UT6X+3G+QJYJPjdy7Tz+hZ+9+LFePRl1Sr55P+y8gU8HPdPx6z06wyo8Dh3QPHzYZT4LosA9A5SEu5w2QD2i6A+93eACvtGNLr0Ocos+LKmjvMmakb66oP6+fQ8KPt5HNj39seM9CHXNvQNenL1y5XK+74tXvn+4lj293/68qx2LPZc7Bb7+UIG+egbCPi+bg76K6qM++ayWvUSZhb34POc9ETyFvOl3fzxzzCi+BdQhPuUhhz5Ta/08vfbrPF40KL1uWBG+2u9uvV8ctDxH1Vo9DXRFvUwVIb1okkC9KmoXPQpgN716TF09+TTpPRv6wL1ro8o9zF2BPaVY3b19Gm889Y0rvqTcOT15doc9yucwvLYfWT51Es6+xG2BvRtQDT/JrcS9OCHCPUBgWb7bGQK+O264PW/FMb5SNjy8n/PSPQJUzb4/dyO8/ug4PnRSlT4tBgo+IK+0vT+r+L2pMSM9CixevmLQQrxya4K+5uWGPXtprb1MCS0+A7WNvkqmPryZJCO+MiQ5PUwZK767doU7QuAavrXC77v1reO9oEHovBdVxL3mGU29WQSgPt4u4D4tmzA+FiS/PY9OCj1w7ai+KvIAvq3pVr118Yy7c93sPV1lfb2enQC+KXeAvnibHj3mDUm+2GWaO3QTL75s+jA+fWFuvu6fOb4vB4C9TkizPSJL3T0l/xM+0aN8vhyAmL7yK7g9vJM5PkJFVr6NMUK9GUELv/l+wz7vLhA/E6VtPbU6SD5JPj2+KSebvmycrz5w+vE+uJMaPOpniD4GiEy+uQbSPYMiDz7Az7m+AIiyvTQZL74+0E29N/rDPcvCmTxHmri8sYbDPQDorz7dQ4q+2t/rPbDSYr46R9o9inttPr8/zL1VNs09Ej4LPYPSZL4VFkG+oD/fvT75kLyUHKO+8D4mPok0BT7yluM+w68vPWjCYT6NZaw9iIUMv04wQT7RHuA8Bui0viFTR75vM/29s/cyvlUpK74RaqM9FRGNPTEZET64C4c+awpLPIXEsj794AC9m2w7PphM1LzgXdy+Tp0jvt/xVr0g4+k+B+WXPhk1270MOIe+MlBGPv3t+72XYyy+evMFvkucKL5WEYQ+LNFQvgsgUz2MSJQ+vWIMvQ3ok77UYPY+bUpNPqXsPL5vmoI+teGaPdmBA75vReC8uprAPU832j2eKpo9JGvBvUZQUD7wax0+Wy4IPWIc+DyS+b++MoSNvjtf+L3UL3e9po5JvWJM1bvf+zK7tyQ8PUo20b6/dLq+4BZKPYZc+j1uqqI+oJ07vs4bsz2k7Fi+1i4svmjfGjxqmrO+it/QvawuNbx8wwS/O5RpvpazNr24VRO+Q4OIPpf0Zb4cX7m+896fPPt4gT4PGgm+NsE2Phbr8jqs2rO+CuMuvgcCRb78ZJ++9iiZPRBBKz4Ln78+GN+3vuwIGj6IN9U8Rx7hvZRMdT4zOfI9acyyPmvuir6LhnS9vn4YvnQhoT6k91E+ZmK5vl0u1b3TYhy+5w/sPdX4572gwSA+YJK8vrJUiz7cgoA+9QQbvzN8qD7ReeE7XoQlvH6IiT4I1ve9oRfZvjlsYT1QHYY+5IAnPLFajz7uJhm+OH4iPoLhozs+Tg+9jwuBPqaVwz1AMpO8pmyBPldg5rwnwiG9cGo2vsUN8rwewJe++tZtvmScX7xtMdU9d8KXPetrhT0tkMM+cpzNvLgXKb42tcm+8SvDvIq0oz6v6HM9PBi8PacIaT58mXw+I+Sdvazt371Wts4+4RfJPbvkwD3Xn3q+MFewvbDHpr6SNne9V6vHPL8xTz4DLgw+qn+qPXiHGT3htVw9tL6EvtYqur2DVCk+V2UbPm4eADw0yS88M9EUvlpl/zwdaIu9oUSIvmJnHb4yPBm+F5NDvdoxHT1kOqc+kyN6Pnz1Dr48SS4+zgvCvZQVa74bbvW9keArPrrfg77efgy+BBHGPdAjeD693sO9NsvsPS5vt73+qDU+U0mqPSh8yb12hgC+ifvFvMJ0NDs8Kfk8GyhXPlQJjj6RO8+8mzwPPkyovL7HohQ+aJmTvcK7UL0hQBu+9EniPdWBFT4PuWa9//GlPUp8Sz4br6C90C7AvUBXMr7nedQ95L2qO2JX2r4305Q+wntgvUVGgL4Agbw+3WAdPoIETj64zaK9o6iLvtp2PD7P9HO9L2Favgao4r1jncU8Wsn4PSVcMj0+vBU+Q0J1vSeE1j2voV6+fIcEvqQQmz6s0Re+SSZQPpANar4U1we/lxw2PkxkBL6OD7A9ahAtO1xQPr3lW1I89QLbvnPfQr4ACQq+SEFYPj1h+L2rRIA+vZVlvrA58D1t4LA+CmkLuzHA3j5DgZc+pJ0CPl640T00gKU+wU9lPgvoy7691vO98XnVvfloTT6ovEi+BezJvoReyb1EobI+QmCOPqOLWj6vCQC/JC8pvlfAgD6mxnA+upSNvb9pFT7FA7u9kA0qvUm0mD7O4XY9crkkPrXT4zwmfYQ+QDCWPZ5F3T46wZa+cvGKvar+t70/Oqk9m1BavmK1lr1Rr0k+YcT8vdHdVb0IyQC9rSTIvj5FPr4yJO29/froPjZ/Yby0JBM/FuUuPrY1mb5tNIQ9YEzBPZaxpb60ZzS+vfJVPaoSir2bCEI+XfVvvfj1PD5rgZ89YXZEvmE4pzyjUbk9YICgvhfplzyaMeS9cGDIu8nBBr77DqK+CRO0vVSPg74MN0y9Qtw8vm3rRr079qY9I4raPR+cGj7wggO+41NCvqYxsL5yYk8+LgdavDnoVj77xyy95SMKPgmvpD6RRso9o1orvj3BYz5+VUe++TWkPUW04j28fa497b2Fvl14Hz5CuLC9B2dCPsEURL0/KCa9f4wnvnuPMz5xUQM9SQCdvi7HNz5mggi+YuJavo76Kr6d+2S9OFa1u8jjhr7/YIA+tnfcvVy9jj6MCgO+7vusPTGYvr7X9Ea95PGQvFs5jz5FIxA+AiAaPrJKYL74PGi9ExApP7HNg76VvJw+cwJEvlh0CLwuWDC9+BLVPabDuz1ybl+82tJ8Pre9/75IfFk+n5w7Pgjfjr5yQso+xYSCvjIJQT7eASw+wYQdvgYLWD4nD4w9aKihPWCOpr5omYA8TWUAvuWe+70UCOQ9Z64FP/olgj4GsHS+R/o3vk/jnT1g4rS80h2cPhi7ND7M8YU9TRMrvqdYpL6CpZm+A2rOvrPoWT0408o+axOMvejl5L2xA5A8bDLMPCulaj7jOaY7n++uPmO7gD1YCLo+83tOPj4HQ75s6h6+byYIvikTKD64Ywq+ouvgPBW7trx6ELo+pZI+vfg9xL6ISr4+IjKSPdrIwb4I7fQ+7TCBPmf8072A1Cu6+mWkvd0EtT2ELz+6jRLGPWrgd73Qn2c5vG/JvoA1gL6D0Xc+T6/vvUdFrj4QEBo9oVYGv996xL550ea94ZtVPgKzFLzYvDW8w/gRvrTn3r5Vr0k+wsRnvvADRD4mA54+H+U9PLPw1j0ULZc+zfkTPyW2U71e3m0+Jq70PbtO4j171DS+5NNwPqEvvr4QVN2875kvvsnZOT48or89M34pvzGxgT7UmYe+gOw4viA2nTpmNGO+NU/Kvbucdb6QRp47K2iNPesLlD4wMwS+XSn/PcHxaj5YOCS+iUukvEP5xzsxzYs9ELZ3vBNaJ70J2h4+lWVwPszLZT7aN2U+LGZWPuDmWL2Vqdg9adh0PlZ4GT5QDPY9w4Ngvth5jr1qL0c+gz/kPLanBj6tpXu+WZlEPcaZb7xM6bc+alidPtCCg7wfZGY+xWnHvm58Aj3CYss+EArKvNWklL0VBXc9Es0Mvn/dQj3ZrmG9JLedvSwdxb0rMp4+44PcvLqAmr4j+UY+fg3BvWf9KT6b8ge+7UCPvltDhj4Iaf88BqRUPhbLlD3+aDU+ZlX7vCJF3j3WEFi+egr1ve+E3Dwy4o4+EptwvWXdtLsbZLW7dB6XPVY7wz2BqCa+W4rmPlYgSrzVYEo9Ss5mvgqIHL2SYSe8ar84vtJXpb5MlFY+ZxwrvkqXrD4cyLy+YlwMPmRsEzt/GfU+97NAPb3cuj7a0kU+dqUFvs730T3CewE9ZjLVvZEjSb4oMZI+dPCFPVFtJj74OMM+BKoUPQzS+r3SV4c+AFMUPhPrmz4DBgS+a0xpvj4aBb5h2zk+UmroPcGNHz7WUNK+8elNvs3UVL0Zu6i+wJeLPbBOUT6cMm+9/4m/vtTdgb7rL8y9CaG1vBrYeD07UYS++fVRPpbyX76Yp/Y8yWilPiFNLj5hKx4/Y1tEPYWmyL2F344+M/GHvlg5pj5Kdb8+ckrNvcRZPz6rTZk98PXXPRebpb46bIu+I80yvs41N763rS8+A0O0vo4Bgb0UQcE+SoLdveQnm7wqHGG+M+sqvvxZkT6+OUg+qogOPyhaFT57+zG/dttHvdyfuD4f7s09vx7UPX6ClD5bPyI/95vdvdrfvz5h3vG9oAzcPaWRxz7LhZy8I+KPPWG9Cb5O/Is9iLgHvgzfm75j2xk+aWxDPjYJZj47COS97PWYPaKUM73b9Au+virNOlYizL45Q3a99yZwvupkFj44IHQ9mZCmvsoSBL7wHi++Ze+rPvYter0podW9UjHRvTPlUj0ZdM29I36NvuJl8byql1A+Ym4ZvsVywb7jCc07w3YQPUjMLD42Zsy925WWvsEYoj4KfI09/XSiPjSdAj0xfEK+gZOfPc2FnL3pBzi94icXvnwEPbzvr5s8e1aLvuym072g8Mi+LbsfvVmYGD5WYZA9quVbvkFiM76aUTM+KBEXPCI1aj2hjDM+BBRRvqgoHT1A6Ja9b8XYPIkpNT01B8G9yDG9vjbgur0xkWG9IVfqPb+Eh7zcNlO+wtdNvSz2cz6gmw6+8qejvvenLz6GYqe7GsgEvhnZnD0L9v48xTgoPrDuE7wOKMi+yyDEvpOV7T1qaLw9ZfvQvgZnAz27tyK+YX2Qvso9VT19UQ291FLOPa8KBT0jD8a+W0GBvgCJiLweNIw9vav/vSnyGj7Llr49usbPO21vYjxt7oi+w8zjvcTtkT1Cqpa+ZSOpvcCHRb43ID+9DMk0PhGSbLzWYTA9EcQPva9UYD7+A6w9yzDFPiUXl7yykuC9qWuIuytPjb5lVAw/4hggvkNTF7yONPO8dLHwPe0l1z3oW4O+N0y3PVFrDj6scJ4+nGpOvDzOjj0v5ZK9Q9nrvWqHpb68Qha9nFqzvTOLSL7TXdi9F9yiPSwTX77KK3S9ZpikPkMohr5pXui92qfdPTvNdr0Z9D89RO6MvCkULj3hLga+8KQPvmLs/L6zJCe+M3gQvzp9/D2tnAY8T8KrvSo2QbyY7Na9xy5ivi47pj0x6Qy+CrUavnluAjxi/1u+tGeUvTUdHb45b5k+kJWtvcWCBL4MZFU+j9VJPOOF5L1LLW2+JnaPPk01TD7eiDE+su0uPsTaBD6qaCa+iE8CPhiYiD7aSZ0+4bNzvcyqHr4tnrC+inGhvLeNKL6NvQs+NVq+vcLP+L2cLJs9qLiQvpbVWj7AlSI9YueyviI8Fb6KpRO+mVi4vTIyPLzT5Fo+PkjMvRCfWb0l56a9La6xPS0wY77nPDU+NMVkPeyAA7yGMF28aW2jvPJnRL7uypO+pVHZPcAJG73ToY69Uk32POtESb7ARqM+tMP5PW4zn7480Hs+GvtiO5EkOr3TFkY925OpvSCQHj0hSgI+o2RjPeClYrzxfNk9Cy3sPoctaz6sjay8C05qPv7PHT40X1a+I0mIPK5oVL5ifbO+XvPGPZbdo7yFmzw+n4XrPXJsnb1tubG+rVp9PePmZD4z7vc+8513Po9VsT7hqGS9XIKXPOAXrr4Cxqe+7y0bvtfVjj264hA+KYvRPuwaKT7/MOw9CpHFvmPPSz5lISu+QT3FvUF81z1+TOu9CRfDvSrbjLuRcjO+ZwGoPddSdT2/Lto+M3hUPk34oz5g97Y9ugY5vEWP5T6yhhS/nhQ3PGifKT5X6aC9I6zXO1bjbb5D9EA+bVmAveaMHz2dqMg9qBLpOxszAT+WGPc8O4UNvC4wyzuPzGA+lbwxvv0FQb5o1QO+rjADvmjnzr0iFqY92jMUPp4hQD41wQm9EaOCPkQ7Qb5gMzE+q9snvgbRhT4Ojdm9POVNPcYnNL1PyNE+ZZN7vV9Doj36hFE9MKuBvYpz/j1TuIY9/QnRPQ1YPT7bOOG7Xw4aP3ztuz0S7t89fNlgPH5BnT7bKMq9HhMjPIwmvj0eOXo+4K4Cvkgb7r49Ihw+q5buPcpDuj7pywC+iBD3vXCGY70ODBm+AB8LPb2dC77wDwk+zzsEvKXXDr4yQrC8Ua6ZPqEfxb6LTZ47ppi0vpmgNL4dR+k9meBcuhV6lT5A0qy4iw/gPXI6yrwdGTA+6hYCvmieZj4GeGk+jQQAPXocAD5DyR8+5fxcvr9+k75J8x49Acz5PPE3tr0Bq089z+SsPrYmHD7Tegw9cEWFPh0vnz0LYkC+p16zPT/Fjr7m1hi+Wl1HvpccJb6bWai9FPJ5vVgtqz7y8CE8w+nHvjea5rz1WOO9ujmuPH7qcbxgAyq9jeotvkzJvz1s1gW+iw9pvk1vOT7NfLY8ycXIPVwc8j3ScQw9PX8Vvr+oCL1flKG9vqJKvRwIiT1Fv4Q84qyaPR4LOL1RQtA9hPayvQj6Lj08qDk+qHcXPhOULj7p/Ss90GFQvogPiD1CWDk+IBoCvuKjGr2pk789w3J/vUklsb2TRX8+FsSOvvjf5T02cAg+7zqIPO3RIj7vn8u9T1RtvbaMFb1gOva934ASPuDCrr1/EWq8ON6LvfOpMb6/EpW92bSLPstkFj7rZCU+mvMLvmlAlzyLhBU+gghgvuWndbymTiC967eAvbkljz2eSrM9GJO0O6OXJD6jEfy93Ew7vlrW2b2BnQu9mlJsPsos7z03Lbo9mm+mvHt2iby4Ey49nFuRvpSQyb3mH6M9rBzSvW9agL2ZYqe9pky0PHuvXD56rV0+T+CBPmS6nj0mRxc+1GpOvezWZz2aY7y9dcfaPVvmlT7DQUQ+FcVXvhUAZr5B/Qa/5VEdviJLgz29pxI+aRmFPisKFT4CAw0+htcaPv4Ipr6OYes9Xd6ZPf6s070lwIc8JMqmu+32UD40ga69Sv7bveIYxz7EMp++Q6jYPCze6z41kOe9jESuPm62ar5tbDa+/odNvkwenz7Wwii9xneUuyzfyj3i9TW7x0sMPOa0nL0h/3O+Nftuvt3XUr6cgdu7sKyFvlpIiL5jUWS9GIAGvaUTsL594V+9C0EFvvF1Yb43/Bg+kleIvgmmoD5bios+lzAzPQ4BF74TV3w+bQSOPczGi74NPPw96/SaPqSIfj2/5/c8vEFNPqNldb1HRbG9WmCFveXn/LzkEEK9Jaszvq/OCL627Ww+x3X3PUrGCz68O/g7VN+NvU64sb6BQAs9E+msPXo69L0S+qc9N5RdvrFfBr5KKD4+/GLdPfCKST6mL+g8f2AYvsBFPTsPkH09o2QsPVRL0D0SpCY9lefDPd36p7wkuDk+wCU/PrFNsT4sCRe+OfhoveLQpT1GJq49pOiVPTev0T2DSme8DPibvZ5Nrz7NlSU+OtfPvQ4WgL2NxY+9zpRUPspTHj4gpLg+NBp9vuWoUz7Cmpi+W1z7PQ1p+T4GOMs8Fa7dvHEhpT3dE167sRrbvEgaGr3Ev4u+JIJfvuReID7zPZA+4ORZPvuCpjvk00Y+W5cCvfLtkD6dJ5S+IcoTvtkQ9LsORUM+Ma7CvZ9mFb711M6+CzaMvdFzAz4oMfO8jKdXPpy2jr1dLRW+8Yz2PTeN2D2NNng+nptHPVP5iD53RJM+OoPKvlkkzL2dEfY8T54WPuTZ8b3oE+89W9WdPK4VD707s1y+5Se/PYSO0TtOh+0+3Ckqvd4zGb7qwa6+iSwtPWEnqD5haJ290W0bvugSID2Ohjw+b2X8PYFPGrtlSa89vPZgPXxanj76Q1e+cE8KvlGe477MxS08i+4kvq0ByDtK7zi+/eeqvdbvYr4N71S9rNEgvdkFk7xT96g9mWDJvj1YTL1BARk9uiWXvgXZfj1Mouk9sbNvvkpKnr2jbKC+ykw7vYF1DL3Lk4O9A2/9PdjgKT73yWo+/mk6PhKmC74CL8s9rWA5PgI4CD6o9Y6+gNVfPrO7x731yvW8GpTAvS3/ET6oeHA9IG2vuIcxNL4UdB0+eOCYOWEJWD6CJZO+l2Mcvh9mUr49PpK+spv8O+L8pL1g4eE+lwmjvXVX7r3tF6W+yhOivlNFwT2gAFC+t3KPPpHmED4OBKi+SohFPsYuSL1gP0g8zDLVvRicSD7U4yA+OX4ZPg9cR74Ge7o9vIuBvUqzAT59ljo9UZOZvsW9+7yOASQ9fAXePvpjpD2NCvu9FixzPlcsMz1aaV0+4DIQPiIaZL5cJem8fUnOvreUzDwh4rW9qPW6vV7Np7u1AJY+olvPPS+ekz7QfQW9Fl5GPh6oFztUkde+zR8Ivo1MNj7skvS8QLaZPIN9sT0Ydjq+IUaxPTAgCz/Lm4e9yRGEPuKw5r2pZlk+ry6KPaIRnr7QB1G+JgSNvXdzyb64Kte8VbrKvJ8I6T4NVua9hVoLPTaikj0NZEY9SQtlvpke6bzNi3Y93Q9wPvSTjD3/sDq+tunpvWnA4T25mA0+AmUMvimIljyolNy9aH2pPb0PAT3rpKM9qEG6vpKloj39zoM+qI8yPaItkD6hd5u9ExqyvYwOsz1LIRu+0jZVvWiOnD0kZEi92HtgPuYAer3Wab88BqIevtckAT5XYaE9sXSEvigMCj4ZiAI++cr+vTLSL740zvk+vDMQPha1t707oys8J6tFvQ3vjL7VuBU8a1a5PuFfUL4PphU9KXk9vkK9YT2EPKQ+veOHvmIWS77stuO8+XknvsGOcj3HCSi+vggjPNaaELxkqvM9GZQyvb5BhD4CxRQ8fe5Kvn338r3Haxo+csPHvSF85j3wGX08dHbLvBH+dj7E7ps9S6JBPke5aD4evBY+VJGAPCa4Sz40NDU8R8XfvgKpEz3/f2s+bwVLPXQQWL1IM9880oxuvuaHIj0yF1G9s++1PYA2xz1iT6y8iIksvh/1HL4CWly+knDIPZWmCT6kLH++NQvkPS3/P77/Twk+QFC2PCh2mL64UBA+IESTvNQbyz10eZK8u11HPt32aj1G4R6+PjQEPjUPx73OYpw+cFz7OFgRsDw2Bby9pUNnPqobezyqQ4i+V1cfPudr3Ts9k38+Qk8RPRY747yoh/s9g1RbvuYxwb12jwK+jh6mPJ8oWr6Ikcu8VSuqPXJRqr0agk0+5hmCPrevEj6omBi+evpNvVscszzPcCg9oPsrPO/e9LwRX3E+0fSDPezTBj7msae+ahvwvRqQB73U4Xw9EKGDvclMQz7A2me4x59FPrh96rz2el6+YArfPNWNez7Gsf+9qLaZPXRepbzfupU+hbInPaRj7r3+Tua8Glycvn9eJz4XGy+9pVhAPr2udT4YG4e8OLrDukNMgz5wBBi9jlCzvELu5j3lMiq++vDqvRNqoL5gyPM9wOPdvYEQJr0pMr09H8iRvv6a370IMTw+cxYMvg4BwT7i+oY+cNAiPTPL4b43W4Y93V4NvinLTj5j8Xy9r0FXvRNsrT1JnBa+ARIsPvpXmz2DNHG9LCeSvLiZyD06Brg8kOX5vT4nFTz1IDC+tBS/Pt5rZj7pO6I99mc8vqtIkL5ST84+USHAPbI8CT4HmZE+aKt5vUyNTL5pzKc9uNk2Pe+j4j1+Ik0+I0THvbioGL2F2du9Z8NZPUOKUD5xsLW8hjoovSJg6zyduo49vyKpOxIXcL7Ako89ncf4vueUZD5itI8+58i8PM2zIj5EhCo9ZoN8PdgPXz1Jp00+1OozPvfLpz7N0fE9LMG2vaUBDL3TRAS9aYWTvde8gL70FIw+NHsOvuvlk72+WCA+dP98vnFRDD0hw4+9k3NUvrhybL7ZlEG+7xZCvTWS5D3e+g49yxM7vtfggb2yxCy8IPVJvlIHKr0sa0U8LmSUPuX38TyN2S++dKajvrAI5Dyh7zQ+eLbmPaNJr76/Jr89RY1wPh/vAz0Y1A++sdgNvotmCT13cJO9ldCGvuR5FL0kDhK95OC+Puyc+z3BRCi+RntBvgFO7z3OtAo+kg5mPnC6G72rbYc9tE7qvsI33L00fW29y5uOPfsaLb4VW0g+iGvGvLLOxz3j6xE+fNlzO89RCT47HIY9O0RMvUtu7j3xflA+HTZjvmDJ6j0xtne8tm34PoBbVT5DklK+wJmCvA99uz3FYSY+MdNPPZjGij6jsgK+1ppSvjEIGL5tZDo+V1PNPYPmc70xaUo9J1M+vlWL6L2WfCW+VVYUvYkrxz2PcvA8Lu1HvqTbGT3FoSG+Sxhivu2EML4Bccc+sMPqvNLiB75DNg++F4ABvjpxEzxZqCm+l+I8vrG1fLw2OHS+zDRgvYaKnj7KPzc+V5a8vkA+LD2264U9t34oPXRARTwei30+MQU7vHMXAL6i9vO9Y6F+PUUTvD3Nsg0+eDINvb69hj7fB6g+4qdFPXOoYj5Jt/y9wwDHvNVIUj421Di+fpAQvouLLD62kP09m+skvgpe1L41QYu9Jpo7PUqmrbtoC0Q9VyjxPVvT4b37n6A+hbl9vlSnB76Sea09FKZ+vSSZgT3rbqw9JZjjvF5bWr6NvFK95EYlPe4pLLzSLoe8bYmWPjNZ5L3Viko+9gYWPeyzor7Cbhm+6JOdPLfKuTwAZ0a+a1A7vqmto71YIuq8CSMlvHD3Aj4l08E9bIEpvnmzrjuiBRe+ZUw4voiv9T1SnJo986LvPZRt6D2pNDC9GKqCvsXmBb4d6sK8QRNqPgkXYj5Ka9m8yW5Dvghyf74VJAq+Q06yPTlUSD1RQ4C96FDavX0Glj7uT8s9YmCxvsek2r1Y31c+2LGmPI38aL59TPc9t7R8PoKcmz1c9oa8fC4OvSm4P74NBsa9jFjCPqaier4moqO9upscvpbMHD4fpAs+nZcFvbeKrz5k3Vi9SBFpPqsknD6x07O9qoDru3ItgT2YPpY+I+xmPnTXDL4mAU+85y/WPsRgV72wcDi8h7ozPvU0tj1vd+q+txlTPifuaL4JiQA+K6cvPh1wxb0AeTw9DIwKvZVquD5iU/y9U2uAPnbQvLzRdY69vOoNvWZ3B77vLOU69yiWPgLzOj5kZwO+idxbvvUVJT0dKIC9h556vb0esr0hNIg82kiEPZbbhz3F6xC92OpgPbTGgD6ipbu9xJ6HvpE3Dz4aaJk97/stPmrUnry/z3u+qFzOvpHsGb6xrI68/GJYvfQ0mz2/fYO9iQk2Pg34ib1ODa09bVTBPN5OuD6kPkK+J20zO9IIvrxA3o4+xlErPtZw4r3JA/a8WIbduprxiz38JBw9L7VjPnIWIT59S508NmsHvvCOBb3rg0M+2sFrvsgkS74BxKO9aBO9PUHqfr5AGE8+fyU7Pju7gb2nGqc91UJyPFUtWb5ckos+qLjsPYJJ/LzkDom+MIUHvs7pQ77k2gU7SM43PaAggD4GC3C+QIgAvqWy3j3X4fa9W75mPBq7EL72IR2+Rz6Avuqnx71Ow2Q9KJmQPqhEP77LgPm9qPTqPfqWTbxwaoQ+3mCjPaNB/TzJ2n0+u3E0vpG5zT0mC7s+pmIZPjhyoDzcFok+8DfyvF1KiL2SZQu+2w9YvoBlIT2ANAA+HtobPhL8ubyprp2+rEwvvg+7bTwWI6S7lQnivfopuL5Ubg0+UzhKPhMLkj2ItmI+y33gPT62Eb6iOZU9QFPbvMBdkr1uKRG+YgE5vkKDm7306Js9Sk6sveR/kj0WI+S+MXGfvQfm4L18DP080OWVvJoxqj1JyxO+NxWJvA4jqb0ueFo+br7KPZRqWj3PrwS+hCgFPd2FNToJ4RS90AJvPR+Qxb2ITKm9peU5PcO8ozx4vSS8QtCavm0LBjystja96II/vuSp+715hlu9f5yIPQOKbT3MIPQ9ongVPty6iTu9pU89lpvXuyvZsL5HdCo9VFG0veLmpD2YZta8Ba9RvomLKD7zbTC+wzA9voluWD0W4nW9DSuOvdPXAz4T+8Q8PHJivpcT8D28rrq9/mcdvttGb77Aewi+bUF2PmroLL4NMfs90M4xvk+w2j1aq5S+BJyDvIlfgz6/rIO9mTg7Pl4qIr2Rhh+++73QPeTjXb4D1mI+TmzLPmQuZr5ho9S8aOaFPg8OIr6q3ks+bBXku3Nhh74sjeE9D5f9PSkF1T3YO949Q+Y8PdTLMT6o++Y9x2LgPR/jx776T9K9SZEZvBK4UT2HRyA+oDX9PZzgub0/9My+paFJvmr2BL7sihI+hJW0Po0MzL295bK+FJ7rPO3Jmz2KjUm9CaBbvjBjabksnQw+3wU6PnAtwrzp35o+RtgVPlijtz0LVka+Kk4GvtZVmD3UaVs+zfK5Ps6um77Zziu++ZOKPS0CML5LTsQ9E5qrPi2pm752ruC9nL28Pdxl3Lw0bFS+Igxqvt/Aj71uzvS9jdPXPeMDID4cVBu7vjcLPpN+sL7m266+3zV4PXIhvjzL5ug83vWgvmpthTx0bTE+nOkqPtlc8z5FP1O+iwHwuzBFuT0WBEg+TdtXviRmCL6Z8Yw+cTslPdklrb7Qd6c9AdbzPV72vz62VcM9tAJqvRbslb1sss090MMkPo3HtD4Kzek9P4ZBPmwlsjxsZTM9gOsUPkS6jb09GAc+YMwkPinhFb0UQSQ91rWTPSgoBD5Ra329Iv2qvcT07j3G1Zg+xpm6ut2BUz6djjo+kuNVvFFVED3jqNM9Kv/4vrD9nj3bHV49hnyKvtVnhr6nCaU+yY20vjXe6D22B4o9cuozvdakPr2iNvs9b0R2vvVQnL7+7om+3NeJPFBBpr5H+Bg++o/3uh5MNL6kT549gotyPufPHz3S78u97jbDu91arz27kbS9yqJBPeMrqjyyUjG+VIPuvadKWj3W5ZI8Aoybvo4GkruMYhw+Lk9CPvzVhD4u9yW8QXIZvRtoXD3hKNe8FhEYPrbAKj7YFX+8aHxOPWVfmj05rnY9m7pAvhtnjz0ISrA7nX+avpXoXb2xVuA92zTpvrBd6D3Sru87yVS0PaAYVD4UjYa+OZmJPYGibz20abC87ZPrveoenTxr70c+WtbbubN8m71UAYq7V76DPO51jT4bgry9b/4mPgdAGDwZy1+9oaOZvbgSBj5P3tI9s0Y3vocpKD74Ago96WEUPnRuTbye2zC+jHDZPQqgvj2pDSs9fKBuvfyAEL3ph9K8KbhrvoEsQrtvp/08smGQvX/1ML6qoAg9tvMiPjBxDT6y9To9pfVpvq/RhT2FnM697lmjvl3j1ry8tlO+xKYAvbO6YDwkt6I+2MEnPr/YXT4sDce9x0CWvTWKG7zbcqy9mxAyPalRk73Pnwg8McO/O/23g71R2Yi9Xf75vQbTBT4SH38907UAPo5XpL2SMgk+xqkqvcEkP73UITi+1++bOt0cnj1EN1E+93SXvPALYj3ToSc+Q3PJvRzOUb0Ld1Q95klgvX4di7ynn2s9Q1PwPEsDRz5Dhic++7h/PjhGIj5Ka5k9gusNvcYu9L1LYKQ8qkgIPRe2nz0hoVy+sjn6PcShnr4BBTc+QLiCPbHVcj6u0bq7GXc0vsvGfD7sKTu63Rp2PlZkLL4M2uE9BzMuvpFA171uTx8+X5PQvdX2b771IpK9dHbLPUtqgz1X1+w7FF+uPVCeVL0dLYS+u6zOPU0tc77bb5w8qeVHPqFSMD5ATPa8wDCdPEBDsb2nT34+6zbpPbrbZL0Nb9q9oa4VvE0PGL6UFxO9xYKyva8WWb3MMNA9/wkxvWNDpz1TTX295LR8PQGfZT4qjcM9voNWvuUE+T1pqrI9kPGovfd3CL41lXO+N3eAvgPWOj4sA7Y+7iA/POzjQj58ooY+vxoPPiPGVb5IHZI9KE6HvuuXlT4pJeo9OJjVvR3htD2i8uO92/OUvXGiz722hIs97ruWvk/7sr3hQqA+Hstuvgg5B77rzUY9P4iVvs2Qlb0Lo4c8PKiJPe6+jz0JDac9CHMbvhJaSr0J1Nw9DT0cvivZ+L0rglG+3cE+PkqwCb4ZSwC+NUtWPhPCzD0xvA09lPZvPmmhA76AjpU9OGR4PYQb4r1z45m94QKFvmoCj76M6DQ9wX+KvknJGL2z90o+y3XVvS6lpT3ELz2+XxBJPrTcXjtmvA6+wLIUPAI2nj3srxM+XZ3VOyBAX7ztQN49Ve8bvmZYuD0y5Oi9NnxVPcroJL1bIPS8pefsvOsNiT2XFiw95E8YvgnwHz6wZvK8UMy9PH/B4T1e+Ic9sQ/nPgHpqz1l2zs9cKSuvY60mr0vmiA+veXDPDgoJb7b4sg9GEtmvhCsNr2Nmrq9er1WPrDIqr11L/I8zy0Pvofky7yXkPq9dceuuzG9Bb7A21c9WahCvhChJ7v+VA8+7dOLvSehzb0PngU+VIyavlLssr2iX7S9r1w+vmxAQz5GEc+8x6WIvYEdiT3M7AW+v8o2vptkAr2/i5o++/MfPn29nT2k/Zo9tgOLPT9uhLmWgrM+KAIOvsNGjL3CK2y7ZuI0Pkb9AD25hhw9CzaWPOtGAT4amr09E74UPvLvCD5q+/a9Kd0gPB5hM726Cqu7nDYOvnQfHD5TXow++ikPPJmw3b22KRw9r4aNvYTvGD7Ad6M7z7DlPdR12D0YeIa+wbk9vpATir3LciO9C/2JPSXRIr4vuaC96xPUvYyrQb7ivG4+m140PIH4Ub44vxc8+/Y3Pt9sgT3ioHI+vmYvPlmViT1kuhk9az95vS+bCb1HCwO/MlvLPTigNr5eFDe9StUDvXR0iz6JMrM+of53vZskBL7CVe69VojEPTRTlDzUH5I+X1mVvhYuBT5M5jK+urFrPneqL74KiZo+NYt6vWO77DxQcTc+qqprvtWxkr2q9RO+myUEPfW0jT1uz9I9nUgxPnFZNz5q47G74hevvSGfSz0dObk95EV/vfwZGr61UC4+vQf/PYPGmbxUNYq9W+1bvpM6Db7xcCu+pnSOPiYlOr7ZxGG+cjNXvuI+aD6XhQK9ESCCPdY2xD0Pjnu+l9QevgwPQT4O++C9kZX8PHd0RT2LlIY+I8TzPWoeM73aqKU7aPcOvZfHyT1ZYgQ+zT3RPQHLlj7fIJK+MbdNPI3uoLziHBu+53MuPkPm8Lz29vE9oopMPjr3CD6q6ZA99AozPl7VlD069K485MLcPc9NDb1QLgY+TfwHvaV647zYS8a9wkjMvfwapr3Sx8I97GCzvSV4ij7HCJO9CU4rPuQkMr5W9Qi9A0nKPa/qkD4YRba69H+fvjXhob2TfQ47PNGSPt6Fhb0oUm2+rNoxvlAjGL6P3IA9QfKPPS9iND2Yufm9QNShvXgEJz2SXWA9HHJyvqjnrz0qlv8+hXpxvuR8Sj4KIdo91GazvF06J74rHKq8PJ9avauMHT20+WI97+QJPhnYZL7GZOW8GkmMPpbwaD2eS7C9SbcjvQjIHzt2d5a+ij3rPWy4172Fpqm8TQ8kPRDnwLv0Ad89V+RiPYzWcT7VEzC+sKNMvtUbBj54dLe+kGM4vPLqwT3swxU+QoLIPchnnT5oITK9tdQavgqr0b2UlN29puMAvmyF+zyJqa08RuYWvpvz0b6Bixw+1/2PvPnyzzyqY7I9KxAKvi+XGT1EYLs+FmXxPVN/1j1G10c8SRCnviIYzj23VBW+W+8zvvOM/rzGlxo+rLZZvY92nb2a3NE77j6Gvoa8573LGZW+/lJ0PmBj5b0B3bA9+ZXavZK3Iz730Eg+vttPvk7MAb6BD2I9qgAKPpBsLb7noGs+QEi6vY7Dkz5iSfG8qaAUPt4F6r3EOui9VB0gPdF7P76XRRo+0Yeuvl5Lmz3ifmK+ZNFAvmKgO7xnqQM+UZOyPeN/Fz4xzI69xICwPQPaI77gpzu9hv5hvRIc7T2szhC+nKFUvvlMxr1h0uQ8q9eUvNs42T2XSlU8mO70PVJALT32IeU7TdhfvpjVnD2diqe9yzcfPnzvBb+x4o47cudRPpntLr7Fc388pcnJvYNp/z1RopC8piaMPY+wuD2imUq+cqE4vryxaD4cQJe9JqWVPZaQCr50GDS+0WhYvrBpDT60Yna9zW+vPDXEmT5G57i98GXKvZW0Cb53VeY9tuIivhZ1FL7viAq+i6aXPWCZ3L2xDKE9vF3FPX0sqD6SFVm8SEFIvMzfUj1NBR++5WpoPoD5zD2R8jS+j9sTvmXoMr5fxoY+8qwxPspGhz37miG+UgUaPeko7zsDFa491H/VOcryFb5NybI8pg3bvUAkdj24e+o8iHkyul/sjTx5Ujo9eOAovodqCL2hLDW8YH/WvQXw5r0Upjs+4P5QPKXhlr7hDNe9lGdEvTmiCD66FDy9aa9kvA/MCD2lSnu+z1dmPqIqH76zUfG9kDH0Op3A2T3eId69jLcRvhQ2jT0nX2c+s+BGPQICnrzhQ4a78qyrvkw+ozwiAIo+i1pMPlh4SD32AXu9+hoePXyvqL3KEBm97zWZPlZQr73hFUa+4GTFPMfNPj7nyrI90u/3vUEvVr6u4ao8NPSFPP0sUL71PzU+BvpUPnBiwbzZO5y+zz81PW6zjL38j0Q+O5DavN4J9D0SxyM+cAotPve1rz/J9X28q3woPg9qVz7uVku+Sn2TvUm9HD2PoyG9nzaVPkq2tb7H+Fm+5oOSvCx1xL0GSv89VyQ9vey1aD4Bg4W8+hI9vWAtSj7cMKE9spw2PoG6UDwzU9G64JouvbzpsD00tlK+sXyjvfWmhT74uj+9lNGCvfyta7v9LXa+qxYKvdO3HTxBQiI9WhoEPXxZGz6UbTk+nEKHPc0BpbzgsQU+zKEDv2kPqz1E2+G8bMASvqBaM77rQIs+udeavgTDJT2J80k9IPSSvlPjLz4VXTs+cnWPvpNqI71OFZW+v2z8vSYumr6SyQe8NuoTvmUAKr6dcPs9MsNBPZILib4QlQa+fwNSvmzCgz4hkzU+k6OyPeMjk75Pr5Y+57/GvlwHVr54StE8M5U4vveWQj6QCzI+/LaJvlmrtr1qDGW9dbKLPdMtrD1HSzc+lrmuPsdbu77CSIS+iLUBvjoaVz0A8Fu+kaLLvnRYdj1HSrY9Q1NVPqFGyj4bnV6+2aoAv84tkj2EVxS9WwYDvmu/A772DQa+2rZRvuJOkT5GnKq8dEUNvDMtPb7E0P699v5kPnisrr2+lvk9fp9NvmURvz4txzg+wLMaPZ4F3r1eqys9Gq76Pc5Roj7SUJ69u8WqPeSYiz2RHq098YifPqoEyD5rOxW+L7bDPWm0db4O4q09ddzdvkjXar7Ekm48J4dmPkukrj3CCaw+wBVcPr2DTL6jv0O9EzltPD88DD6eenG9qkWlvkQXKT1pA5S+T1VEvhQCO749a929gKq5PlKDub2uZLE8vg5qvvwvUz0FpJI9YVhNvoSPQb104jO9C1HkPTWlL778v/89WCotPNBmN75tVg6+NosIvnty3T7No4A9Y19HPWS3HT0wpt283lprPgtnOT4uOdi9dvyFvs6n5j5Eq6I8PdNSvXtA0TzAkJ47H3vvvVKwBr+cFiw9eRTtPFQIZr3A/aU+N6eHPlsZP72MQPo8IranPQ5W8j0o4SY+fe4GvjAUyTwqyog9fTpUvX5jtL2h0Ju+aJsFPgMjdj11pAa9eITDvuIsS76yIwA/YRipvrLuGz5AKLg8ti9Rvu815b5nYoc8kkqOvnshEj4+Sas9ulPFvazNGL6qIm6+ChixuVXVXz0cy6E9ry1nPcdMpj16SII6hSedvsnZrrxIyc097lEXPkNHKr7ce/w9u/loPUUzFz4trqQ+iqOPPar7Ob4USeO9+BhjPhifH755ny4+MWzWPRydtj3y27U9pJXqvRKsn7yazCI+FOXXPRwgGz6GVH69DtNXvlyBRzxOOD09m0mdPSfb171IzW2+WZL/veglML55G3297ZMAvk2j/z0TvYs94IbGPcbeHj5KJZA+AUa3vSalbD2GQrI9oew+Pr/Jz70EBFY+imqEvqK0Bb4V4qG9mGtBvr3Q3rw/4Ro+rM1OPmYI1r53J4C91+OavruGlD5HzSm9vd72vECPIT7IjOY9o+IGvcEQZr45ZbU+M9aiPorQzT0UsMO+ryX7PqomqD3Qi969u5YePoaMyr38vcw9yGZcvS5dj77nE9s+1wyGPUxch7wD1ja++RgoPSt4OL43W5o+45R/Pr/lsr0Jmq49HQxRPmXHob4hwQS+HA2LPUSUR74hNZC+NYMQPguCVT5915C88dzwvu6c3DxMsY89Q9CFvqlYCj4vkaC+C1q1Psx5Vj6quEY/vfrEPdb+oj0Y74A9hpi0vh6mqToGq8M+7VMgPZR+Lj1uqgg+S/QFP+NdY74078Y8i0YYvjE/zj39BKM+g7AUvito1j7RsHs+EYV8Pjyu0T6Rdrs9NyfCvNPgND6twNC+sJwePqszjz6d5jO9uVKAvsIZ9T183qs9G3auvO8hZL1+V1c8Snajvuihyb0sjtW9i8ONvni2Hz5uBH2+yuTjvZhUBj7Dx5Y+NSOnPoU27b0YjYi92W+fvcL98z7Qw4Y++vdQPX34Bb5RKOU+nNqmORSBYTzjFJQ+8I7BParukb0a/NM+tz69PaaUh76suSQ+KCJGvg81xz77VuQ96MrbPQ0GEz2JRaK+AHuGPYmzhj6bZSE++KunvmvRRz495Y4+bwuWvqsvl74OboE+Lyzhu2+Q8T0KPxI+aY7QvWKOszxs+pW9OcNqvZDjXD1lvYQ+W28evpIfkD0BQoy86/b8veaxI7zh95e+kQUhvntZoL54E0c+tbLVviojBTvt+6m9Ca1ivvxc4b1UCds+mp1OvWr4Db4wj0W/JLcsPjEFPL5atfo9LtC9vZrZMD4jfuE8ATMdvqjApT6rumk+RcsoPVDpvz7z6Gc+DRXyvLyNuL1CAE2+KPmiPmUftDy3G4E8K09Mvs81qL1eWos9buDePV1IKz1A2r09/37mvTCv9LxHPuQ9Jnh3PrnFnD5A+A4+hxCwvhKpiz3efZw+1Q0avsuhUL5O91A+tH/tPRaGFT5V6no++KQtvmNY271wfB++E2FXvPzJrL6pbog+JCMKv1FXAj6NkQE/HaiIPfQ0ir7tdyM9BgJWPs/XYrxAu0C9p4SXPpJ9Hb6QJZQ9EGxFuziBCD59Vwm+4xKHvgdvrr24aq0+jBSQvk/52T6HLfu+V2xPPlQwgr7g9Oi+WkvrO4W8Rz4yPFK9G795vgpowT5+Y9Q7RxGnPjMUZ75MkVq+Ed0hvqt6mztaIpU9VSiFPcE8B700YI4+puSsvjLImz7FcL2+SaTvPOy9/D4/h9i8XziHPv/LOL4b0ku9sleXPidOnz4Xj1S9hqY9vj8n171bzmw+MHv2virLQr59qmA9fzheviwPIb5gQQi/G7TtvVPTG73xn4A+igzfPfy1s70Moy0+JEbwPer8RD7AybO9ot9gvaFauj3Go6w9ppZ7PsCvx764jP89Dq6cvg9eyb4gboo9hHdcvUv3xb63MYG+WklrPD2oOzy9UN2+SkpZvuLuB70xaAG/aH+1OcIlkb5k5k4+nhYhPuJ2uz24Y2W+d4yWvo/Rir2pmwQ+WLvjuoY6jD0sjs6+vppkvkZWuL3UEWe7J6FYvT/Cpj5y4Pc8RTXEvs6zrz0c90A+bmKjvWiRzL0LBxo+ESdevn+n5z1Ptqq7P4vFvhro9D2WIKu+kN6dPYk9TT2/kzg+YlQoO0E1Cj44qxq/azPrvBihaz4khjW9JicRPor2+7t//rQ+wU/DvrlGWb6llgO+EitvvQizob5UzTC+N11hPug2BL2TQjU+XG6lPI9Esb4cCJ0+nVGDPeQLxr63wSK+UGjCPNFeUz5VOks+lWRDvuP+0r0D650+Hm5tPdU8a74T1ka9GmOTvi5lML45t5M9EA0APjfkmrxzhCu+MU4jvf06t70l/gE+ds5IPtuYxj4kXrS9TgSLPu9zAj7yL0Q+3T7PPf2GLj7Aw6A+z7y+vvv2pr3ehdG8+UGdvdZ0n71WImk+Hy0QO87Maz5JGB6+MzbQvkvcLb4hf0Y+gC6ZveSmqr13yPC8xQSwPTsxlb657kg+2XTUPeEsob1L+cU9vPOIPiGowDupapS+SpeaviptR70tw5C+xEihvOFYob5HWy2+SibhvgdlfT5T3v69CLI2vuJj8T1y8sM+0BSpPlvlED7zpDW+MIFkPROSRD7I4tm9lw/5vSDzYr0Ohg0+AeRCPeqdTT5gwpE9sD+jPWaUYLzw1NM9obHPPrnwB78Yzjy+bEV5PkDa3j1vBuo9je81PscaDD7SCE6+1uXkOoRiNb0FOu08hJ+PPN/tuD0cYtM8v9M1vuU/CL4d37i9ccyRPDC1nr34Jka+np9PPiZ0zT0EXzo9I+S4vfi/zL4YIDs+w3ikPI1riT5zh6q+uB4kvmoxmb5xu2+9seM+vonm3r2ZjvS9W2pBPriiEb3op5u962i5vpQhCz5ZF6W9HNaUvqFLPj5YjWi+UwMzPm42WL6Aceq9mec9vl3oHL6pcOM9ALpEPaCBSb4NFo69IPgDvu+mbL6KEx0+eE+KPkXgNL6Lo1Y+XuqJPXv9AL4twte7Knv6Ovt4FD7c7yW+fMPIPu7dQD2bzY6+eWldu/OyTz7ZW5O+X2CvPvvx8z02MJK9Al2kPip8oD4PTd+9UimhPTABtT5XZ/g9yAw8Pp9RGj1Anu+8a+UJPwwtdz70v5Q+qBTaPYC0uL4Nj+A9PIY2PQ28Yz4mblc+wd7OPd5fW71eauK+rkzYvZS9Gz3Iy7I8BCmfvWiD1751kGa+nhWfPkTUjr5jO2q+O0rNvKHGd77yg2m+ZKsIviIsPT7OkH4+ixGfPau4yL2YA6Q+FyYUPhhXzj3M6ba9UBgnvqoVPzwrDbM7SSxTvTM7AD+rP5C+4RGVvT8fT773dLy840zCvhkAND6N3/A8Xr/HPGY5ETximDw9i3KlPBCbNr1zfjo+hMKoPiciHz3kCgE9ig7wPb2C8T3FNIg9KrHYvXimr71eBsu+Y5qkvgNZiz7zarE9kGoePaOGDr4zIwS9kiRFvQ9XbL4g1j89b7dwPmm1GT6Fn34+mZTKPa3KCT50jbm9Kb4gvsIOID7GgaY+PeVaPtJLuDxAr8A9m/QePkA9lzxsHmQ8gso2vkvSzb7Tbis9cVA+vvRHe75sipy+StMAvqGy5TwcBom+yXo/PYbKfj4Vyq89KxDwvbzsAr4p//68jFMcPZm+4b1QCiy+6dCBPjA6YTyxQKY89zaJvgTX6D2LuuK83X41PJDf/77uRAi9vDCyPsH4Q74lG+E94ae5PahHXD1wSru+xfMaPjB9WT59fJM+6BA8PvEY/TyMS70+iZJRPbActj2dqCM9yTqGPvZVLD68NIu9NVqdPbiqI74o91Y+YwJxPUJdqjx5Gxo+uMy6vkw12L5RyVK+BllYPopTUb15gAI+D1dhPvgExLxGeb8+lYq6PjXgor5504Q+7vEWvruna76o8oU+bvFFvQd0Mj2TblS8cbe0vN5nIr6Lfbu+H4GSvuL2tb1lwBs+F40fPkoNir7snWa+VTscvUjPFT5xx9O6L9/UvKAIjb4ZlSm901flPISYQ75Ym5W91pmdvsj6MD3jD+69u5JNvnej+b3D8Uo+G82/vHG6rD3vsqA8QCgmPGz78j3EsOs9EHvMPM2eLT5Zc6e9PiqgvdJkE77McqK+LEcQPTMI1D6ChYo+HgngO3rkGL5bM0++4aGbvu9vrz4Go4Q+Ub1APOjfCr6Qf2q9qPaQvrHfk74C5ZO+Dw2jvi/5C70oSfM9/xMiPskci77XK8O9g1AtvgNISb7SfmS93FmNPCZHmb0Nw3s+CX6APiWY4L21JaQ9JlcaPlaVp77TNaw9MRGUvq6+IT7Mr9I9tKPdvfD5Kr4Uw6M92YisvfzIAr57zDW+3OcePpUxtb6EiIe9XxZTPj3BlT1wTH88RGm/PF4DHb6Nbmm9epyWPq2Meb0lv8i9moscv+pz4L1BAUE+SRU9voXjMz6JnIm9Dy7VPrCo2L0E9RC+Jcj3vNheFj6qVMQ+HlClPibeLL1wTwO+KxKIPqjLTz16afA9KRIyPcAbRLxEhc48dCcCvkZGlD6BKvo92/kWvl5pUL2Xa709rHcCP+LsVj4fOkE+TJM0PlHykb2T9do9Tfh4PsuuUz6LCwE9BVjfPbKGQ70yDQA+cz9APa4HKr5fWne9KShGPsUtur06uXG7cfuLPJ0WUb45YUS+SSzDPQ354T0jCTa9ZY/QvQNOgb4ZtBc+3PyaPhI/VL4XczI7amMUviTpPD4W/2W8SFuBPUxQij4hQ2M9lUAsPpT9AbwhbBg+oIaxPFm7nD59Sai7Z7Mqvi7pQD5YsiO+mrmePRG3Hj5CTio9hnd3PWnrkD3U3Yk+lA8JvfPZL74iNsI+/ahuPdtFcb4E3AA+L7ADvR/VVD0VTOc98lu+vTJhCT7KLkW86GdLviPltL3jXvk9gBJluKg7cb6ET0q+EZEBvn1ODz3BeW6+xhOFPnAhCj5rMF++CgIjPucP7DyqrRu/sLNGvOFGIL6vU/k9wzMDvra5hr7VhSG+LugIv4AUjD0i3HG+8XUOPoxAFD3q8ao9LeDevhuhCD0FUKg+cIm8vqwhI75BbYa9aCoRu/hA9jz4Ybo9KOeMvePjH77qjKA88PyBPjat1ruLpnW+aUjKPbYEnz2FE6M9mmcUPstK3bneebK++eoOvvJ72r1mDd49CC7KvZE4bj3O9gg+ulrCPK/1gjv63129AqIOPsJ7yT5uxsm9deDpvcDcpD5RSrs9/8VzPFTaTL5JY7W92ZlavQpoO76cprq9FxFdvFu9mD7OHIC94FaEvmyMHDx4HuQ9i/R9PjKvhbz+edw+hvRSvoCnoT1SHIc9yEKuvpcIKTvctYS+QLrSPsp8272Ta2M+kn76vFOLmz7Hw3I+dLUaPagQuL1m+L89fukGPgg9mz5/2kg+hRsGP/kbXj6RpwS+e/DHPPIlHr45aem8fqBqPo8bi76TO8S9RelNvW9jMz4d5f29X/UCvpVeQL5czZk9++OPPlLUoj0TmtE9IfMAPlTHILop7J0+DNMCPgiToDy40A09JnBcPjKcf73fGEi9luOpvSDBoL65Hyo+X2n4PUaJfb2TIUw+vTlivhmjaT1dWky+sXwDPpK3fL52MaU9oUaPPKvt3j5rdBA+T5vwPdtdpjsigQW+1d/dPZg4zbn0ep8869olPsb2Nz5wa02+KxIvvnUfGz7m2IK+bKdnvveGP76NXsu8fWSPPOkYQj2UaQg++0t7Pi8YoD47iN68gfCFPsh8m710q3g+ElVmPjYkCr+hY4k+QuI8vvaCr73qP50+JnVdvgJDuT6CEEG+YanevRFY+70OTlK+Ld6jPcY+lDulyJO+0M+QPfVO4z0VH0a+NMVhPkpLD70qfhO+aj6DvYDgiz1wjdM9aaIqvl0Uor13rd+9D7BSvlHVWL0u3pQ7fYfGvtiRcr4bOyC+awjyPKGmor2EoOA8l4BZPcC4zz35CoI+fQeIPYRUr76/ahw+zgjVvW44t70nOpQ9/sF7PtXoMLxeMIk8+De9PQUaSr7h3cs9BNdTPm6Ck7s+8Y09HVs+PkYp+b1bRBo+RuQ9vqBXcT3ON6o+AQbUPYN6Mb6jE4i8zpgGvxl167qYm2i+qzmAPqPGeD1Qlvu8xdadvA4mzD7ZrIG9q82OvkLtRDwJfrs+bL5ovBZteb7zhSA+LLFdvlMV475aZ4k9ZCUUvnT6CD721t69TkXPPcziNztLzlk+aC4GP980rT5JIfm8/UWMPL5OPj7ztDc+VVNkPeoLuz1Qc2U+ab2fPFEcNL6bBky+Yfscv2B4Eb4UTXC9uYCRPmz4ND7+N409C3SDPIqUWb3wIOw+85s1PvjLV74FGa+9pSzPO6KEYT4dipy9XO+zvvp5sb5DPV685uWDveoL+bvA35Q7+TTQPXNwBr7Uq50999+xPjYij76nEsK9L490PNPTmLzWihW+qyEGvdkln71iiRy+iU7rvWWo9b0yNUQ9I7AcvQ6dcD4iK2e+sTMqviOPSL24A12+QL6sPYyMAD455RS8FDrxvO+mZ74qcWG+nQI5vruazr4tMgw+232IO2VLhT1gkLk9UBE6PZ11oLpOYDU+D4/svVvhzz5Zi549fO95PgSxQr3WZuI91IEcvsOLRL6wuCm8g+epvPAlmb6XfRe+QHNKPpTbnjv43Fs+oNAYvk4yBD0ZQny9xMJBPZg9Gr5gouO8q6ooPlicIz1Qgxu7PMSBvBsf8zw+rg28Lv7JvrcwuLwnCnK9ap5VvmeAU72AKoK+6aPUvmt7Sz7vsgm+Y8g/Pgq61L23tJM+AUADvg6ynz6pyo+90HM+Pu2P9L127VE+XlElvOn1Wb5kxMO7FEiKPbULkr5nMXO91kCOvay4Yz4Pei6+oEW+PHBv873eqJ69tsn/vPhvIb5d96w8Qu0rPkXKXLy2ZF++u6DUvdVzlbwsdQQ9iUA1PnyjWL5nBBu+ffcZPaDM9rthl02+n0v0vKUDhr5DBHs99DhwvJZEFr4Tj/8+F5BDvSZMGr58jfy9ZckdPVNJvz4lVpm8ROoDvgLgjj4z/Aq84wwavUheOb5yYxw+jrzIvCzqpD7xk3g+/c1fPQkVwr3XnaS+act4PjRBmz7tuNE853vvvR4WZD0ZXkG+OWCmPuujEz7Mw1++jWkqvmV1xD5pYig+uPp/PiaTEL7g7L484SmsvmYY6z2wYh4+tR0vvvrAFz4Z+h8+ZIDZvc9loD24PJ+9RiyLvjheo77WkhM+0ShtPVECKj6hFd+8cFrYPKrjir6BUyO+speNPfsKQT5MkOe9m+FBPXYLabwUWpy+RXl5vaY45z2oszS+NeO1vCbJLT5JvWG9LI+LviFFjD6S5wQ/6vU4vYdLuDyw1oM+edOrPZ/skr3SioA+FWsXPntmwjv9eCC9MOY1vgPKtz7gHY6+Q6rxPV//YTzUVK89GoSjvVXNgz2PWl6+DuUgvhD+lT53XpE8pj8xvqzDZ77Z1Qw+uiCqvH+MvD3l9c88GG6KPW8H+jyUMvC8dCqqPYebjz0VVK49y+Ufvr0khj32ReU9GvZTPrATeD5b9aK9GmIHPswvwL3KcOA9UxXfvY/IDj1iKNw8tqz6PeoYn7yYarO7XwYevQIsZ7xPmpA9+GGJvVKi/T2WiO+8uxPPvMvPVDw6A9W+OinvvfX0Gj7fgtq9QIwjvuHnX74gPk+9eMSJvmnxAL414Gs9XpMHPi6xiz0X26C9CYJ9vihzh74IPw2+HrXhvRs/vj1ejQe+5kY6valB4LzroA+9TRKgPfWufDwdLIm9Qm0YPV6jhj4zlNQ+2MEAPWb1CT7cTcE9SMEGPhInuDx2yIO+k4ImvtVgwL7RKWo+A8cAvK9Xoj2xqIg+nOKcPQZKN74oOlm9oYmmPURozLtW96W9yPhKPVB6ZL0YnUA+d6gPPn8dlLxuWzi+N+w6vtocWz6cKjA9MKxPvls0yb2hlje9mbMOv7IAtz7CoJs850TaPW4M8z3pgy0+KtPGvXPm0T3PDMA8Qk7HPdVFub0q3va8ZK+mPKqZ6D31sMG9vmq8vbVaf73UUNo94ARgugFs1zz6rsq9kAT8PAs/YL6n3gG+7JuVPF9I+b3xyiW+D8GdvdQS2z1Alp+99gIxPf4USr6rG5c+gx/QPKPd8Tyuti4+2ADZOfX2MD4Tj789Ws/ZPSTUjDzma6S9FqDivNsPrjxzT4c9A62qO6aOr70oNEa9kadivTS4WLpK+LC9XlQ6PwPUvjpFAxc+BlmKvUc8Sj7lbAq+Kwh8vrl/XL4HeEe9RAOPPU44cL1aN+a9Bw1NPU1Trjw5Oz6+g8I9vqNwHj5VNQa9XkczvX7/JT5+pPe8QGSbvbolTjz3JDO+UwVBPkV8az2W6Am93I+uPDd1KL2B/kE++4HqPctT3z1ZZts9XpsnvOCyvT1+Mvi7RPMRPnuFcz2DpOC8AtWwPI9cwbxTcqI9bhW5PLSloTy8ADQ+blnjvVjZTz0jnIu8g2WJPmR67LyYi4K97IFevRMErL3VBXA+ZEhBvkCQer6lWDG+5QQzPmk7lj27PYO9nQwdOuZvHT3cF5U7EbqwPNbiRLz48oe8DWoJPq2svj3XwYu9kYiUvXRQJDzhdbQ9kN45PSf+aL3CD587dpEUvs+pDL5ekYC9jQKGPVDIur38W+o72a/0PbOVeD4mZ8+9rrcAPUXYnr6OEmG8rhfePa8V3D3EASa9C40wPhLEdrxrwSE+0Kb4PCW2Qb1BCJ09AeGmvYVbjrsSvV491b/IPSuoB7wMcFU9rdXRPcVER7wodCQ+2GDKvdAfTz0OmQE+t3iJPHFiAb3lUHW+MO7DPAuOOr0p+hY9mnWRPI7dEr1xtCw9TLo3vt5mnL3DYD893qdiPqatMT5jwoU+vNftPfSu4byE0DO9bpbmPTtmODyR8vu+eU6UPQzAiDvIoI66VqC3PkBzrjzV/YA+R1EQvoh1ML4ultM9rumrvfrwU7w7Hwk9cChFvvd9E70IARg+uAH1vb2kBb5e/To9HDcJvL42Zr2RTsK8eHSPvUOcIT6HThK93eqvPaDjsDeTYy+9l173PB/9nr2Cm5G911FXvizWbT6yiFu9wr6fvIUnwDzAJNk8nUKuvRxO9TvpfZs9cu0AvTs6M70/+LM9r7livrA4vT17rWA+oVWUPoJ1Bb1e6949HBsjvsaLAz6AIBw9dLtCvOwFCD3fTCS++HvMPiqd+z3k8l4+pvTPvZJLlr1XXg2+9lHZPSjBBj1G2GA+SZLCu+WHOr2FkfQ9PErBPVisTr619o6++AfqOyv5vD3HKeg8OqwXvhPVxz3XX5Q9ZyLQPcMgED4+ucE8RYwWvkK+C77KU8A9LM1wvRVJTj36hhw8Ej3FvcaYY76Mr1k+EryzPMyd9b3d7RI9NDwhvQl3kTvO5Go9uYw0vhKDOL5CH0W+xcsOvqmN871gFcO91sKqvnf2vD2GhYI+QQrDvZmbLL2gAiW+9/cDvh9zsr7k7bA+o51BvtJ/az2WbWU7tGoEvkJRGr67Wle+tokOPjAacr5VzDG90BlHvuqxuzuy+rq9jcNGPRYBAb5kzHM+GEoYPcaE+z2R2M4929DRPLhUuz11UG6+38JaPdsRL7ygLqa8GwBBvPgGEj4Ogbq77hxnPi/Jeb3ebkG959MEvonpjT3KR229xv+TvgJlDz4j+gA+bugCPudxk7xXfE++Zwx4O9tVzbwh/TQ+LByXvbS0vzwEtgE+OgBhvhZ2dT3ycpg8vHAMPonzJL4hVzi9xFD2vXU2qz01C149I0v3vfS5yzlRTnu9jHQTvXUPoj3XD4A8+fwxvgo+Jr7g8xc+bBdCPiFeHD4AQp2+deQZPtKajTw4kgw+uLuZPEW3QL7TlPy81um0Po1QIr5Bgyw+2AI2vnAmFr0BNT49YVVUPVkMKz6Cutq+HdfXPeUjGb4cpDo9Boz0PGu0N7wlj1c9b+UFPv7Op71xwh29iyASvkkRg71Cz849tGUwvLgf0j2e9769oEXCvceVN70spwE+CUnNvVc4pL2CdsU94h5HPXmLjL1YJqO+OaoLv2TqoD7dzzc+2gnNPT1RPL5QBlm9f6BWvU68hL6P7Oa8u1LIvXXN3zxEh7K9JBYevvht4r2Onl+95QtDPQME0z12jG67W1tVvTY4Yb0CDyc94ncyvXRoG77wCy4+JntqvWzczDxcnLo9P7ArvmThIL3AE7s9RK5PPW0bvz6vR6Q94XhvPRkIaj7TnAm9SISQvTjO572KyYs9qqU8vV7EUD5Wcfe6Wq0wPqJftTyB3EE9dZKvvr2XHj4rDyY+C3ktPNQSjD5BZ8g8wEh4vrXoKb5fxDG9d4bLPR4h8T35UtC9ozUePqt6yb0afQO+4l93vfzHoL1EDwW+WwQJPvhF0b1UzMM9eD4yPSpP0j3kNLA+eGYzPiEjML7hLka+G2YwPRH4FTzN3z4+vWdlvn96EL56rkU9BBtLPqnbIr3hLuu97rd/Pcr4/70dXky9IeuHPmIHHj5ljay+gWkGPsd21LvgBJW9dzU1PcsVXT7cKRS9z4AOvcfs6L2os5q9j7v2vHGIR70+5wq7l5FOvl0VQr7TiqQ85OACPasNUr5FuTU9XbgOPVgJY73BdqS9KKTyu/ziLj2a3l4+99wtvirFRTwyjqE9p+1OPi+foL0zaBI+yFF4vq+uZz23EhG9vaHfPNoQW71FHtO9BzeSPl+45jxjifg85lWuvWeqxLzNiKi+wOJUPQd0qj2v4Hk8CgwmPfWhYD2A1ia+APrhtxV0wr5cOaS+NFGzvVxP6r2sJhO+d+cvPXx8AD3mf7G+Cu6WvRhZ7LynKAa+Tvu6PI3/Lb1P79q9SlHVPH7Mib1DjG+9LBRLvlJytT2IDHw+YTeBPp5wer38tWY9LyWsPdAkdL6Pux2+RKc/PnXzBL142b69PJDzvBGVzD3umIo9/CD5PZYzVj4qdSI+p8cwvruIEr6Ytwk+4AlovQ1DQD4AjO08cqBuPPx9tz2egJS9I789PoaDQb1nle0999IsvpUjU77ZAzi+DFFOPh9/k74ufUM91LzePTwVaz2RSdw9L0ONPUQZQT67TEA9Kqr/PaSVPj4a4xs+ox/8Peth7r1aeKi+z1KTPqaEFj6MfoY9zqVnvWEOvb0PhRA9I6ZUPbkTob67QPC8wbdGvvF8oL2tRBW+420tPgR9Fb5PvmM8mxWqPG8LBz5fmUM8n/FEPiYevr3FiQS8kteAvflSFz1e8Fk9XoSTPmdT3j2in3w9AK4OPlm62z9YFQw9nfENvjm12zwc1mu+tVIePhrAy72oLga+KvXIPYQge71BHkE8gb4APvGSCDz2a6A8/PxxvF0VcL20bwe9Dej+vYeKND1z+tK7GdRVPZ2l/b04x/O9bXh0PVZkKD31jQm8eE2+PRTivLwggsK9Nog2vWrl3DtD3NQ9azAXvq9Uwz3H5uw9mKznPTsEOT5dLFc9J4GtPAQxUz2IkEu9QjmHvfu1JL4m+zY+hh/ivcO8SL1EL9e6AWdIPe4tQ7xNuY49Z46bvcLF/71Yt4C8QgKXvveOLT0SY9c9sVZlvWxOF70Zd9C8uaguPkzoh764p0C9WAzXvGl19r4470s+hN7vvjFWITyC0Ro+ovSavIdR2D36+J86my2QvRCaib5wJQC+9t3bPUzAjj4KPfw9kkFRu1gcob5gAgS+E9FmPhTqBT5kkRg+D3Zsvpxeoj7BRAK9UlNxPESX9z3csb2+NuyovrjyQz2RdQC+67sPPt2tqj1zsa2+Zhqxvt7m5j4Hwa+9bYANPu6TED39I5s+2C01PnNOHL77dJw+Gs4VvK1N0j7P+289DRlIPq6bmr3AgIw+TAhRvkap1L37a/+9JYX9O4sjAj7bAHe+ii2KPvEbmj6ggNm8nfuTPT9mQD6mWim+YjUhPjIBZb4mNWU+rJ4BPmd2Vr6Fbcc+wBpovnHipr6hmBu+EzyEPYqKEr5/pou+XiZJPU440zwdGAE/nzCvPRs3bz7DygA+4ST6vj5AqjzsfF69SputPiGUuL1W68s7tKXvvZqIpr7W9qI+XQvBPeMnYbyretS7smOaPhoA0z2cEGC+vFWtvSOfGr2wXAU+AvUJPV2bnT6u0JO+ZQYsv2KMrz0AYgi+gsvbvJGZeLzMoKg+7W/cPYVjx71Pj0S+LKtAPSvcIz6+r+y90szKPbhajr1ut3w90qhWPA+mHL23BMA+OykPvthfEr4d9Zs+qiyLPT32Oj27ivC9lfS4PU7mazv0tKI9XhNYPlnxoL4USLO+3SKmvrxA8zoOaVw7s12bvZPK0D231A09ZLWyu0ZlCbwYy1o9yrXnvkP4vT5FcZ29hCUEvlIlnr7HMPA9qZm7Pv6m27z47jG+qCl/vG28Rr4kWw6+CJtSvqTAvb6r42Q9HYulPLucwj2bQZw9n0pFvqgfCr9qg5u9XQuIPsq6Jj4YK/+9Y6oDPqwb9Tuw84k+3TcQPjKzYz5sI4G+IPJcvg6vB70W9Ti+dWKtvQINoD4QT52+gEJ/vXHdjb33DMG9qwa3Pvj9nr7fYK+9PciKvRlJpD6tJZI9EHSEPS9IZD19/aQ9p/dYvn7rkT1iH3w+cycsvvF+P70l8GS+QSuZPqXnJz40aaQ9LklDPIR1Wz6j89A9A+EQPk9Rcr086I894SbSvY7SB78k1iy9WxmyveQQAT6A3x0+1XmaumAe2D3vWm0+fd4PvoBduD23VkK+qbUNPR/sSb0Ek3y+NKPePX5Noz2qJU69RYfHvDXEjbpLvH6+76eEPQJ8Xz0eyOK8UnYVPu7q473eVPU8Gic2vQFAWb51XeA9gTmEPg8xszzzmfc9YhhpPqC9RD2Kv4a9Dg2KvJ4qPr19kn+8q6wtPT8rBL2XW1q+ElOuPcQVuL0gCgy+hJmqPnL8CT6fdMY9tG5LPuYuaL653ng9h//dvXc2+L2CAYi9UGbmPZ4wNb7WiMU9MpUqvlQ/XT5uryQ+zf0qPphKDj5Akbe98rcrO3ckE74IjJK7P50fP/mThj5fgw8+aUGDvlEKXD4BYqg956jVvXjsob7QSUM8v1G2vnIrwz3WGh0+qJ4nvnPHTb7wbS69o+SBvmMBm75meCa+DCxGvqXFrLwIYm69KecPvkBYOb4OvH6+bkEIPmWUdD0XL4w+86sWvZ6o673yYZ++RoFLvv0bkL6s5oU+8L8nPXFLA75Y4Qw9GFSfvpwYxz2/NDo+ncpxvabT57zTGjk+S1TWPn/97Ty+aR8+cXlHPRkLLL2iHEM+2WW1PuP9g73IFiG9iOKMPht0vj6BXiQ+Mp3avUQ+nL79doW+7ho+PoaBGD4C7YQ9ZpAWvsfQR73ibO8+1OQhPr8Ktr6c+o09yNQZPl8Gpz02E9G9Kwe9vTlyAD6GmRA9OmZwPU4/Vj78diY+hNfJvaZNfT6GCMI9MTTQPej7Br5xkwK+HVWyvVoVXbwHMRc+ztowvl1Ygb6yujI+L0y+vh0u0zwohwE+XeywvXQnn77vuqQ9NKjcPcyNbL0YV9K8z6wgvu+XJT5PQXg+u4RavXYqEb6xIPI+dQeKPCbpDL3Xja4+sSDSPfkeqj3Ohia9iiCSPvSofL5DZpO8apbDPUhio76Gtsa+fKiSPUXW8D3Ty3a+y9zpvM5cPr05toA+9lUaPt+pjrwCNbo9gKApvCJk0T7byY28uVNRPYh8nLr460u+m3swPZVZdj5skRS+7MsRPo4DwbtrQ4I+UcRQvqTScb7hRQI+qvgLvp2zyT4+Aza+vf/svTJPWT3r8AY+6ty7vIKLMz5+VWw+8oaCvOQ9p72q7vc9rHuOvkh2Oj7q0J08gA3fPvbsuT3g3SU+sHPCvVypzzwdRVq+LDAnvkZnqrztyRy+1HxFvOpdBD7BQv+9R3fEvb4u3T6uGL2+sXTVPKWppT7+CGu+NsBDvqL2sL1jZQc+uHRxvqEtQT6tAMY7g1uzOz7BPj0oeJs+DnABPvZPJr6A0Rm9fQnKvfF+jL7+Gsa+c8WYPJKuCT6dJww+r/n+vEG07L1iayS9erjVvE0zJr4kKpg9URmluuetBD7Bycs9DuCMPXXgWb5nYxE7sXeIPV3lpj1lJ4c+cpXUu5F9g7zoEwI9ESocPlVjmD5SskC+6zYOvM7AhT1T0pQ+586fvV7jb75E5wm+3zx/Pqgkm74nlyG90qWVPr6KPb2jYWm7hhtTu5FUpL1a4xK/EnaOPdnKpjy8nyY+AfZovt/pCj5vaCG+X0u5vhkAPr5hmIO8fVpovvSZU7525de9Q5ECv5VA4z21h9C8Ku6NPk7QDD/7kho9m2KivtaplT6v6kU+I0urvqqQXL5kBJ6+WDDAPj8Zzb68s6g99ff4vaL5zb3LS6K88xWivuHojz5EHOY+fFcsPVjpED1Ci8m8MOSGvh/QeD1k7rk927eFPbl2Zz1FrOC9LSo6Pjlfbb5dkC0+kxBTvkik+L1AXcm+xseoPo2oDT58P4o94htoPonoiL7Fi0Y+ykK9PnXB+70o1d++a4G2vIqGLz7Ghu8+q2cxvsYXmL5nD7e+QmZLPXNrVL7aOGi9yTyMuwv1KL696qq+YJf3PRl0xTzTJTi+QqxUPlB0gj0/cjU9f45tPszEGz4S1qO+ALXRvUpYdL0ofQa+sjD7vARhDL5K91m+R5/RPsboxz190ii9XDsxPo+NQz14pS4+ouNCPg4ToT1UNuS9CkwCvRP3GL8tx0g+yKAAPinIMT5VyPa9R/twvbpWrL0kmqe91OMmPk0BjD0Rzqa9zO39u3wQOL7+Jqa+/ACdvSMvhD08V7O+t6VxvqeqFzwxB6w9MyXBPLRAcT5QCVQ+m4+sPiJb1b4Slwg9MxecvJyXjDuxhpc9xo9jPqwPKT7RPLQ89dbhPeFlWL6uHnm+F8s9vhi5gj7NxyS934Kevf9ou75sDrG7bAe2PhcWvb1xVxu+iqyvvlUl8rzOibw++Ty7vT0ZFL0vgY49WiX6OwWSg75v12w9ThoWPrLBtz7bVKO9wmcFPnMhOr5hnYk+wajnvFntIj2jo+w9GNHRPb9/e74X/NW73/oSPlZMhz5hHZ29hQXoPNtSLz5W54W9XN0MPrRKC74N4pY+HDmTvBkDGL79I/++xO3JvrZFA792M+u+96eYvo3QLD08c0u95TupPg+eIb5hjmA+FcfkPZ/gP70tIA0+N26zvskQBb6I7yK9C9l+Pt9b6T2YbNs9CU7iPdT6hL0Ck1W8eIK4PYHwg77LOM09vCCPvmd0hryy1BE+JZLZPpXAjr5ZHu09RpI2Pi+imj6tzCc9PlcYPc81lT3rj/C+C7QFvffjuz4hkJq8KSiyPR6LgT4VmII+9wyHvIMSmj+jHp8+s3SWPv+ptL0d4Qe+ppZgvnQTjT2H6KG+zlq8PSXEpL75D6u+QKWoPSa6yj6OlMC9dr4qvjjegT20cum8GPsLvuYrUr7QQTA9mIcfPuHOwb5GE46+nD5MPXsNIr7MA60+7ILvPWBt+z7UF669KKqhPQREBT7rmC8+kTG2vsnrDT4QelY+BI2XvcKt4z3FP9y9QsVLPd/UWj2E0rS92A/cvaikdDy9UI6+az0Qvtz/mr01W1Y+/8LIvozfsT2t/wO+wMREvjkjD74fILC94Is/vtUX6zs1OOk9mvKYvAPvgD6A7I09OIqHu/Uz0LvzQY0955AQPkpJGj4sUji9P13KvYJYzDnPR7w8YpT7PTMIgj2zJ4W91zhRPSAC9r3xJx29DYltPPbluz3gSnm5CY4APtIiqD0+WBE8tdysu0NuX73JPpE9gRc+vSbepz190jW+jCExPc84lL3TnJm+nDALvvJYvj1svqS9yKHVvFqUQj3ZSV88SX2KviQ1M76xkg09kOTlO6yDPD6+64W7Uh9mvp5sH77cO+u8Jid/vkFhwT3d2jO9IVsGvvzaAL7iloG92NyFvEbgOD4ssFw9m+YMvesulT53i8A+o8zTvXYU0z2bKcA9UkZHPm/JmLzpz0C+/rp4vjKx476sgpU8UTQSPYmZhbw6hqg+CkmSPUgwU71GHwS+umTPPKk+nTvwtqW9IjgjvCgn1z3Ei8c9g4YLPgZhtjxg5vW9LeNOvj7XjT7qoFM+/SXjvUGFk71TFfm8teMJv0MRQj4LFJs8jBqbPFFdyj28TUM9uukevrc0ljxQGuM9d4BlPUwigL0WJ5c8tEpGPOcM8T2pnym9FlJyvW/rBz65LvQ9VQ+tPcYvKj68wLE88f2yveXz0zxw+8+8+wTUPEw4Bb77GIC8xIchPECRXL0yO10+kEQCPRCYOLx7UWo+QJYKPM4uJj4ZGx4+rSawPI4RNz33T6u9LEOQPehQnL2pZ+48vptrO5bdFLzcGbE7DUtzvSk2Kb63fTi9PpeWvV5+PTx+0d29DD8ZP4PPP75ZB+c9k+DovVflAj5gP7g79/AgvpOk5L3vaoQ9VnXzPYy3GrzMfqS9d0CxPQzby73etZy9jbmzvMMHIr0Z0iK9XJWVPRtUE718+b29JPZ+vYuuG73q85m9lYFZPhHNRj0ZNhu+ILKgvelRqDyBfxw+V6MhvQFevz3ECyE+pKJYvWuKCj4l0My9aEbtPcaD8Dy4E0g+sb+yPKV+rz1fU00+p1LCPSBlGbxLef497KeUvSSEdLyKBx2953MFPurakD0scWK+h12hvVB7zb2tOs0+I8UHvo+0Yr51t5C9yuf3PXm2ubysqvi9IOEVPYBTGD7lo1o9jB2uOtz/ZDyP9Zg9fIYsPtFI3D307yS+HoblvcR/mLyUK4K9wtEwvOmi1TxTdsy9ykPJPGn9nb3+GVI8mKaSPUSotr1VZF29NAyyPWlTNj65FjK+qEg0PCCYHb4YQW+9QFwBuQ68CT7Gj3I80DdePkC0ErxeGvo9OPa/Pe7sRz4//Um9Xyt3vi/OWT2T0nO902DtPUZWCr0TraI9j/NXvbNFd72pwYM+Q7/nPGBiFb1TVzg9FKLaPUvPbz0ohcK90kD1vBpqJ757seQ7LmDuu7By0LyV+bk9e++ivDQ8Mj2wDpK9oy0JPruwYT605Ww+yGOavatEZDyZF/g9aQKdOjjmT70YSAW/tBs2vdDGvD3mdU48ebCBPsh6wzxO3aU+iEr1vUd4Db4zcSs+JwQTvY0Cib3CVsY8PFIMvQov6L2oBIc8rZ8+vsct2709yaW8Z2qHvCC9Fr0hZo+82yUBvogfPz4fdk29igUtPr/CurxhyyS9RMUqvewgoL1sA506RaJWvkWRnT0DcmM9jnCGvQQJAT48t4i9s8C1vtuw5jxj2hY9cnyGPOXtXbxCMsg9QYKmvs5jhz4oMk4+hJ0uPphvM73qiLM8EFiOPOZiEj4YUbg9WotxPWBFGj6M22c9tQsHPq+wQ72AbVU+e+IbvsrZW729FZK9CMCjvFI9jD0NCyY+LAl5vZxvLr6Ph248ULIjvYkxPr0Qk4K+lKz4PSHVpr2EPp46g2PXvVYUM71Uvoe9lu0SPmA2FbtmvrQ9KkEZvj0J1r1eA0w+lCDmvCVjYj21dKE9Yq4CvpwMkL64tN49x8lJvRng4j0s5aI9dgIcvXUI6Twt5y89+2XzPFRwib4hTru+CAvovf/h7r34dzI9mgMCvqrxYT04PA0+XoIvugmxJL20ct27Oos1vYUptr6TAkc+eXEevhq4sLy3FTc9sW4gvou2xr399R2+JFf1PImQZb5DGjo9OHIPvrvEob0/2i29z/JIPUp8wb3qT4s+1VOwPZzv/z2BN9G9DM+1PFmVMz505YW9SnZnPoxFgT0cPjS9yzmPvbEE5j15m8w9Oa0zPq7bPDuGUhk9yqZZvv+x7r3S5B++lXqhvhr8j7oyOuE9g7F5vX9pC76Teh6+wSvrvcg3JLqXKTA+Gk8WvTSvbT0XfyY+bQNJviC6NjxKoai9Vm90PfUFT76LOeC97JTKvTpuhD2ioOM9a6F5Pe5ZLb4SL4Q973pIvtOogz5nOWe92i3eveHK4ryGpQk+nj4LvQ8ypD2W7Py9xpOGPMELUrzDARA+RQSfvcSUgL7rYgU+hz7TPtl9ar7mCzk+0rRsvqAnS7xy1qe8F9MAPX+9qj0hGhC/xDTjPZjCF76J+jo8JAOTPepeoDzXoDY9TOxkPPvVvb0W/C8+FPrIvbyatj0E3dw9t1sfPWa2yD12ToQ9rokZvp/Lej0umxo+GsBWvZ5ocD1SqQC9XANAvVIH5byxPla+0hsEv+us0D5XjL09wgROPVJrLb7dllS+9IXBvbudF76+NI69ophlvb4+0TxtvMC9/94AvpFj1r3I7Kk7xnYkPuc0tr2nmcM9LKgTvlJ+WL3AaEg9HWg6vjr6y7ydRHc+DQcVvZW6hT2gymM8gheJvZ9ZIr292eU9rMJmPTTsNj7JyPq9RIMovFA1qz6US0M6l/hAvUrJOb4srNQ9UDuQvVFgkj4C8nE9Ts4GPokCkb2RPca9Hr0RvnnpHz6u61o9/dcGPQxXPD58Wrg9U7JOvueym71zB5i8yju9PIMQuDzDJBy+4PQgPiT+Gr3jsY69/7hhvAg7cb2x8Sq9WJFZPnSE8705pNk9l/s+PnnUoj2iAoM+9ELFPVHwWb4myTm+5qEGvsIAjL22MOg9ylKkvqqH/72dABK+W2lkPkS+er0CZru9XcxKPSz+R71Q9IW9CJsjPvg75z1MH56+J3vmPSvJsLyMcsA8cIWVvI5WyD0gvQU9D+Y6vWXd2L2nRgK9gZGwvYk7mL1uVw68WGMOvjiVfb4vTwE9f/r/vN3aPL7JiRQ9tH1Gvm28XD08oWo9X4b+vX6BEz7ytaM9e6IiviYJfTy5miG7eD48PuX7Br6Qasw9fzwnvsCLLL1GnQg9+C/6PaFjJj4ZD7690AbiPi96Ej5dbhS+KKw6vbgCI70czpG+RomBPWVQuD2SLgS7GBaxvW/uVD2Yrom+rczaPWbVeL4h77S9EWrZPCbYLrukDSI9MvW+PG36pT3Yr6q+jWZNvJuBAT3B5b29gkzOPdk5PL3cVbo9jZ1LPkmJETzEYtW7UpBIvpx7rj37WQg+bMU4PqUBGb6l2NC8pMlhPYa5A743Mhy+mMwPPpmQMz3BCVa9tUXtvSQgsb11Z9Q8a+pIPiHBjz53hBE+PgjJvfDrUb6h66u8dB5qPUPhxT1B7yG8kPjDPYqrbj7R5v07WokrPhzeqLwk0iQ+DK7kvSbvgr61nj2+YZiRPsoenL1k/Cg9dn7UPJg7mj2FNUw9N1avvZMYIj5UcY298EnzPIbKWD59zCK9JEiUvBIuGb53HJK+whUHvW2YDT7xtkW9LblxvDcFcDz85LS9ZqGQO1Qagr0QzdQ8QkxdvPiMub3dnsu95syKPrNK6TwKGku8uuHTPbNDIz7ZcJw9goTMPfZoAz5BJbC9C+WVPf3CWDy1CQc+k8W7PtNGf7139eS9o9fZvV8kvz/ivq09fh5DvsxmvD1zpyq+yHwxPfzO3L3mCfa9NtjlPFdCML5kEZu7DNdXPlFm2z1IYYa9zs4hPn10cb795Nu9opqNvFWgdj7jZsW9G0KQPWxfyr0L/va9a3ACPowF4TxwUA09hnsjPmvieDw4+CS9Ki21vc8HV72N8KQ8DHNyvnrXLz2cBOK9+IIUPbMHaD4VsJY9cD/VPYaESj4Uck69EUphvfeLpz0Vce28NkFFvU59Bj7indy85qrMPGYJKrzEwLi7qb5KvaxPAL2lA5g9WkMLvkw0Pr2ohje+r+wQvoOSjL31XNg9jZCqPsQKoz2ocCu+ngkAvxs0qz4eczC+4zrnvgU5kz5koI6+SqA/PmdGAT+KBI+9KaAPPs8qtL5bw+29m4NPPfRyCb1b2xS/4dRPPQNLwzxu6L88a5OgvkD3Yz5zppw+lcqDPE/XAD1Pr/k9XLwYPuSzID+tQOY+nngCvjMnrL5+VqO8dbs/PvduwDw0ZPC94YmCvYKXfL3AWTM+3ZxIvpwk7z7m9Vc+5iM/PvY/Ij0y2UA+wepfvWYcKL5AXM4+/epQvgpJnD48KK6+3uwUPnZEFL3kVUg+bqZ9vbCIMb7fEME+C+IPPhiWF75pWas+J303PvnHsb00Jgy+1oZWvpheeL6aRh0+d4TuPRDYsz7ReWG+W/krPpPikL3ubFa+pjA7vn/TRb0V2AA+MchaPpnFXL5uFsk+2BKaObiCxb0AnZ0+QtAYv+sWUz7cXpM95rsxvnLFvT7CGUE+FRoePhntJT57qi8+P0rGPdcIhb7yNIk83gkQvi2for7KkOI8YgFiveymUjxewWC+ir1pvm2q3r7pMq6++cdEvakwZT65Ot++89pZPmUdYT6wHDK+y9z+PSQmCL6ttXU+yVAuPFJG0L3Vog6+mYCmOiVRoj60ITI9fcYJP4tVgr0FpWY+g8SFvcY5Ar42xV2+oUPRPvnNkT0kpx6+1cDIvdcPZj5TE+w+dx5Tvl5mqD6qZbs+vS1APpGBLz1Mdw0+gIMKvpB6Cz6yL4g+CHrWvm8VRr4tYWi9iaVrPjEEkT7eIK89tDGgvuLmPb5BKu09rVmhvjWSpT2UMwA9MtL5uor1574Yfs087JnSPI/dmr7ce1o9ZBw/vnwUnr1F+wg+h7pXvl473b7RD4w+36Kxveb7JL6CUl66oj7hPmhKjj6F3Q87lFKAuzrq7r1Kv7y+WriZPAaAUr5UyjE9gzjsPpCJIT+1n9++F0MXPouO0b6BFVW+AaAXPkhA5b5Vd2m+jXr1PXT3tT5ec7C+LzGuvo3Psr6P28U+L2EHv51gAj7Np1w+ITJ/va0M7b6lsbk9Xz7VPSwEJL0ZeR690dDpvG4ssj1LsMs9ygEePQMqDj7GlAc+ASCVvvR0cb6nkpy9T1+qvPSdhT6po3G+hgQpPk2a4z4N81G++BcZvsDxPr5UF8q+44SFPhEEGD4eaxI+rEG1vcyrIr5LUks+6RY0vu/FLzwX5hu+ZBslvQHQqL4Wnrc9IE2/vpdr373eAQU+4twwvkDaK74yrAA/XVgBPiR/k75cYOm+SkOevSRPGT5rGbc9K2bNvcSm374Uahe718c2vlU+z71bdAS+9UCuvijvYb48Jwq/xI2HPva7jD7OUEG8J345vmHKPz7K3L++XpmgPlptxT4aLcK+0zoRPnvCQ77qV6g+bbokvmV6+r28LB+5lMScvYT3yjxg+ls+aYweOzUk2z4e9o8+7nogPjXoxT0sO1K8cYZ7viXaFb509dG8zLQ2vpxbRL6WPhy8FbEYvgCEzj3SWho+OKa6PV6Sj743VBm+23nMPiofsj6Rzhu9KXsUvQAe272inas+TdabPmh1ML14/gg+igJTviyHK74r+eO+cBYSvcsXer7Exs49HfQcv4+hJz4ieFQ+/kCHPpt1gz5cxaE8EGuWvR4O2T78Nas+mM8RPnoCwj7T2gO+wf9Gvr/u7r2/p5C8JoinPn3SSj2ClR29FAmfPfaKpz4Xo9u+hVIOPnmtnr1NDcE9eRwIveT5Yj1JUKy+S260PcbYcTxurka+oQzYPc7DBj46cyI+FAzxPbXvlr7/Tvg+oipHPaXqwT2D0NE+nRODPXInX76AuOW8vHaVPk8xRD44v6E+NAxqPUiwoT2aP0w+K8rMPAG6q76rg56+chgNPeIzbb7ifT89tiFXPgKplb6i2O4+QAiRvTkE5L2D6r491c0yPxTUij60YpY+1wecPRsxAL9ZlhI9fKHlPG2nqz7jgm890nJyvuYJir5kfLu+A8W5PjanU7wWbyM+hWxLPa9oib4xzfM9lg3jPk+eHT4oYjC9k3JSPdTNMjw2poY+cxuePsanrj7rH0M+8PeLvqStkL6nS4Y+A2mcvjzu5b2rG/I7vKiOvpZ2QD1fEWE+NqfuvMOtET6zzWM++KbMvV6doj2P4jc+ItSpPZGyE73ZLbO+v9/SPgx3wr3M13s8udAlvWvcjD5/hUs+WyhLPrBHrj61i7O9FT1fPnDS+T31+Li+3DDRPsF2kz0Gl4q+RZqpvlW6Vz73Rco9N6wKPi1ahD5SfWS8bRWBvaazT7wEmYG++J6iPY/I+b7DmTY+zyrsvmtYcj4H1rA8YV9Bvscyh74oc5+9OAyvuxDR0r3Qmmg+mtWDPoBjC74KLbE93Bgnvj6/Eb0Kq04+qe0Fv//APr6tDSw8imsCvyzc1730nhi+IUqOvecmc75JjSC+8Gc2PuKk3j5dXl494tl3PjHVCL+IOAG+JWdUvRjGDz6HJoE8MX5aPWvr2T0E1ho/YyH6PbCTNT6XxFE+5fgQv/TrkL6W8Dq9qUOSPgsOu75n7TU/JPYTPlJ7kLxVaLo+Nc9FPzhdEz6BiWs+MAINvtKIIL5Dec89LMepvqmi9L16V+W+oYuZPlR3fbzrnoY8aCIevnPzFr0rg609Y2gnPu5vKr1hfQQ+YKgUu0KOYL33GZC9/SAVvrCuTblCWKE9a+7XvbdeCL87q2Y+9piBPjg1973wJfq8I4obPovmvz6eBc0+2riTPVTliLy4Pju+LzjLvTiV4D5BBsY9VDIrvYP9Cr6OXDM+8CjSPYjpar4pYBw+E6kyvSPlV75MQQW/TtG3Pkoxc7410lM8axQSvtI587y+7TI8L3amvBCe2D0/r6y+2jPZPVuYBD5djZ2+Kq32vlnEAL5FSWy+w9Z+PrDZGb8LOGC+kaRPPi9yer4DYVc+T+w0Pm4MgT5/Sd2+K4Z5va0M070GxBW90RdMPsnOwT4inrq+E3TDvXEgWz78GcC9KtupPLoksbtz06E9zQM3PUu6nT7ab/i+t/dZPuBoR73adek9YkAbv4y/Gb2Ba0C+wY1QvpquWj5gsfY9zTEKvrfy5T3h576+700VvvWvFb5kDGe+B/BpPiWRrr7DbxE+E5QGvivtHz7YHvM9YqS+vrxDsb06L1g8E6cuvl58174VEQY/dqzPvVLJ+z2oy9E7XoK7PvJbYj4Bhrs8zo6CPD3PpD5RxuM9ANJbPXl2TT7ox7c+LOUQPfm2eD5o8NE9qKpUOjHlGDysve89VcijPpEGoL5iqO07+Ht8veH3Iz7V3389MExfPly1ZT4oB9y94la+vRUe5D0L0Ly+nJMfPtG+fL4LXZy+13kkv0yIdb7Qg8A8ljbMvkcNz7ynkfi9mx2oPoXMWr5YIXY98bHAPAxMsD4r87++dVaBvQcq+r3kLkA+D5onvtk+Gb4a8do+8NJjvpga3L0ShyI/FJYEPmWH5j19tnm+R/1Yvg1VUr70IJa+v2NEv+JcZj4nAfi9DyF4Ps0yhL3UUhq+v0stvmI6ar58Qqo+vVDwvRx/Ar6s6v+8U/szvcQ+ej5BF8S+oj00PstsCL/twQG9X3atvTWkAbwOqyo/0oYTPmyDiryVdek+HqJ/vhBG2z49axI+34cmvJw9tb6ltOu9BM0Dv/LTWz9HOBI+G2GnPa+/mr648IA+ffBgvbeFKb1rVJY8Y6IhvqSOtb0Katk9rLbwPfgUQb5q7iC9OfaUPkTeHL6SLwy++Jiwvqcg5z6UiiI+5G+QvleiF75dwMW+chVrPXiWsz5Y3Hg+NuQevaHyjr6QARg+7LXwPpdLlL5nUBE+/oKbPsHjl77v7769U7ycPqrUPz7HjVw9zXw/PVzS2r7EQR68UjO2Pf8W/z0P6Cm9+Vr3PQiddj6whT8+rMFFvqtJNb91mNw88tKEvsyeyr24Nhq+5YrjvSpRm74teqW+JvuJvpzGRD4k0mw96VVFvr1iTD7zheM95MmZvrQZjz7um4S+yh4sPpHdmz5CY4A9BjNRvKDSNT6QMhO/UWBePn2Y2r2Gc289B4iEvmoVLT4Lalm8e42cPJCNoD6PbRu+mKYuP8A+4T4lQKU+b8ixvTqNU7ztYA4/yIStPS0eHb+9SjO+kddnvrZugT1vQMM9t/trvrLWaj6QIde9DOGqvvj3oD7y3pe+kdcyvOEBwD4j1Iw92/Z0Pj/KxLznVaO+t0FgvSaw+D3Vqco8iem8PSQHDr4zQms9DjWvvWaYU776rDE97R8+vuzYCb2XKBW9HR9JvuwQGj490oE9YGvYvhKgyj4UNNO9uyOHPVjP8T7ylsy+AsbVPVnM0r5hI9A+3SQkPjAmkD4phYw+zIl/Phgp6r35iE89QRTVvk0jdb3yKbi9CRvXPmjNS776q0c94mSHPoMC271IjIa9bimyvkIftD6+tFs8VhhpPtiZ4z5UvQi+N5PYvarOwzjsz2Y+B3+Mvn9zf71DkFE9Y2X4PqOYiztYoDk+CwcOPy8MZj2AsDQ+7LyqvVpbJb7YL1Y+YMxjPe+E4D0zpJi9pDnSPkEgCL56xwo9MK/4PvJ/k76zOJA9XmSEPirsB75od688y7TDPtqMoDr7AeU9Y6iKvnzzZ71M73O+pdU3PaQG3bvFtFU8daHqveXCF75pE+2+rLYMPcA/775xYLg9Z/aqvUNt1z3U0EU+02zNvGgqir4ytag9hFlqPu7Mnj2hcjE+uhDlPuNCkz5SWiw+y31VvH2MFD2gQ1c9EOe5vKeAA7+tUgu/XyU+Pj7zzD1Jx5Y7fHWzPadRBb41bqo9/EHSvU7UKD7KTbc9TnbouqQaiz67Apk+CewWv16KDL4YwS4+aMmkvfVp8j5buN89dziqPQ1+Vz6iY2g95PVYvlqRyL0z/JW90fyiPVAETr6ImdY93EBlPnAVZr7dYEW+pAj4vVBKHD4kWbK+qR8YvsmDsr7jboe74088vTPXZT6NOGE+RBbYPjrJiL5QPxk+m/FLPrzOjb5nB+09C3R9vlV9fLzD2Y+9jOBxPp9buD6FgMo+satVvZ74xbvMvcG9h2quPsM6Mb+vEE4+V9MWv7pVab1kAbo94iu5PYT7Zr4I0RO9AKfWvYozQL67yDo+VeEPvl91OrzW6X0+iBKEPghfIb23xqg+VrElPkKBdD5WQso9I+TTvW6Bgz1TsKS9sZIGvokl4Dtr6de7LbQMPhjHqT5CxUM+SqewvNP4Oz40Ars9Qz8gvliwZj0EcTW8fFWbvc2CQT7GFdE9uh2hPZ7e+z2+rIU+PCEGvqqyKr5yrfi+fGhMPcfWDr5eq9C8v37VPhERMD65JYE+2SE9PkJRb76TYTm+in5jvhWdqj59IYI+UuPlPSy8kT1A2Om+5kntPG/N+Tu8iVw+X23HvsryDD70k4K+/uzBvhQwD75uvP69MtG8O98tIj4MJUQ+nDslvBpd4jzgNms+5wFSvXu2pz4ComE8wnWFPmQlDb44v829MVW4vWpvbD29EOG7XFAcP3q1wj5/MRA/SN1Lvhm6Oj7d7Q8+nKC9PnR09z0xLxu830+UvukQVz4Lq+69zp0cvilyAj6XSRO+qZRyPrd5S762dCw9LpAyvvjBwDsI44m+Pn42PlTVlj6qJLO9Nt+ivlNikr1TZZW+WyIjvQrSVr39XAe+IbkDPlsSVT0xCii+kZP1PZrVzz0Bql28uPaZviunJ77PGEM8Ur2MPoqplL038vA+LTCFvkzUoz1S04w+m9Env87D5z5vKgU+b/irPlZrzz264oE+p0sivvnUwT0Towo/5EgFPaM8GTvgER68VDqDPQC7Hzx2J+C9lGaSPksADb70tHO+0vYwvo7zjT4ZnH29yEPAPm71Aj5iy3I9qpofvVkcDr1ywBU/e4xJPad2IT5ktkw+jkLyvYWRSz585B28poymPcZYlz4w+4Q9BLTsvmVDgr7U6mu+MkZgPZkwUr7U+oe+Gn0ZPiXr672KLdK+obrHvKvFkT1Dqok+naqSvKLibT07ZKa+fIhoPm9/HD1blku+qMZIvECEN75WrPk+9ZOHPXSSGTzCf0G+uBecvsHIz71zrSq+eLEWvYgS+j4YnVM86QcsvmdN8DyUcD89L/vxPaIl276l1Pk8CEH1OvZQIT6AaPu9Bb9pPaFy8r1KaV28KCENvndb777MBhY+ENyUPjUtfLuyaju+mCkJvzid+T3lcqe9ZE63vjx8FzxydNK+Q3EhPqMFDL0TeMW9m39RPiR9jTx+w5++dhNuPmb9nT72Zcc+aTJZvkIILr42dMa88AaGvnQzYL3i4Lq+dtFnPtiCxL031EO+4gMZPoAorDwZMC89EBthPrMGALwo+Bq+wTwDv3zIab1caR095LgZPhwKID8MD6Y6jQ6YvSK/j751eJi+X5oqPnITQb4uq/26d8kmvJjt2Dyfidy8HCAnPXkC3L2aMqq9JbE6Oy29173HtqY+hXiUvbpqKr2cngc9WL/2vlr/Lj6HtQC/yZ4NPnBLWj6LzCQ+XUbqvZvELb9U9lS+l+LCvQrErr5J8Qc9iBGJvuqOeD1xGNS+rvjYPVJoyr5pswq7e9qFvV/5nD2WnlC+nd6SvAd6DrySR3M+Ou8OPJUzwj1Eo1M7CVuyvgTYur7IikE7i0poviS6PD7UVuc+NpHuPjvVBL+koy29GwbtvnCzEr5L1oS+YNB5vSNtCz6278m9CXijPq2U1z6yEYs+CnSAvrR0Mb08Zka+/wLnPRh1nr4HV5w+9aijPrZ0XL256om9MAGWPZATtj3WO9895ynGu6wNHL5Ta/E9jjEbvkg3Wz3me/69CFS0vcDB3T5yf44+BcagvqIrDD0S0Ao/MtRRvtWPuzyss2y+VJsHvponAz6h98i9DqOsPuMz3T2WOJ0+FlRhPaDEij2ZZuA9xl6tPfpb9j3JiZe+/c5kvertH76h1409yGx/us+uAj4BX328nhQoPk5XJj5bykI+Ab+KvrNDsD0a3i4+bUGdPud4Jb7P7nw92l2fvIy+uz6WC147i9lEPt9UZz2kE6U5AnGqvWXCVT2lPds+ZAMBPnqehb6ZFZG9XZDLPaKC/j4cnU+/KCpYPiMOlT1FUoa97Rs4Ph9z3b2ToEO+51hIPu3tPj5H8Ak+oagavvr5Sr5YiYg+J4zTvksSn74dkYc9PDzGPkUUnD2IMjO7eA0yvmN4RT7yRAg+aRYAPuYSnT5EMcU+25U9PtNuHz3rOHm+H3GuvkQsKL8DIBI+uQuxPcs1vL4Zojq9vdFBPUtGGrw/b108odx0vIuIO77uezW+96rHvNd/D76+fKw+6R0EvSjGKD25n5K9YWEdvxf2aDzrOPC9GkbuvFYK6j3f13a+uXYBvtgjeL5SzQy9sEI3vjWhZr55LF49I04fvpcHNL4W/wk+GzNJvp7naT3006s9q/zTvoZBnj2+NB0+wFEgvo5wkT6ggL2+jRxoPot/Hb5iyie+HgLRPhaSKz5fEqg+KTQGPrwfhD2Imh88d65VPAFR271wD+I+mcmKvhz+Ir62LOA+RP6UPqnKnT7xBeQ8d6nYPu4SFb67VoO++mFOvn7GcD3LGKQ8doq+vf3jzb5MoUA+iqDEvezb8b2YJZ++f+GEvmSxPj5MssO98g20vHcYnr4uBry8QnjBvqX4Bj4XFhi+eZDQPYtkNz5h5kQ+GeT1Pl0HRL5kH84+Xlolvp8zl759lzQ+Ug/cvgHepr1ThQo/GkKoPsqsID/GxxA8CiSTPljfAzlgA/m8UlaLvp4GEL2mW3o96Q7jPnQ7wD34Exs+99lnvln+Az493Pg90z7avYQTDT5Tcrk+FAFcvcGriL0psmm++uLovbYioD6b9Ja9Or+ePkC0Wj7ejo49V4srPkYBF73zDSw9CDW0PhkTPj1DFws9BlWHPnslx7yFBCc+NA7MvkTW6b2Hyke+0NzoPJmKKz5fDYg+KmaIvqbaVr1ShV6+W3ycPR5Xq76pK8s++O0avlYTIr0CcXM+kx+IvY/DNb6Y7Dc+8xgmvgusYL73JtU93VI7vlsPpT5BFnu+e4y8Peu7ZL69EJI+DTvhPcR7jj4mpcs9c0M9vvDS2rxk6HC9bOydvm0bIj6iQIU+XVJ1ve6NN76TQ4U9QZwivtovqbygOYQ+7P7Uvihuvr1W6Y++pq+Uvhpbo70kIfg8FExyPtYtlT5ComE8/mfuPQFwvL0RF1o9hcyEu5KAnb59E2M+i8KCvr7iAL5Qdkk9aXi1vEqnkj6iy28+FFIEPjPIuz2JW0i+mT/nvn+yFj5SgpQ9mtmvvchR2b6p3ZO884quPmwxrr7RYCe8rRSqvWkLbb1nHH6+qNfwO62y370IaVq+JKfePJcDHj2bUKG9aVMZvjX/0r5V7xu+H7P5PnPg6b2mGhO+pR/YPasmk73DWru9ROnnvjc33LyxdeS9fYsoPTtCVj6cADC8/X1NPcY5OT1jxbk9gIoYPnppyb0bEwE+msA2vYB6lj34rZs9u7GsPm7T5b1lUgy+aBI9PuIxSz67pww/umwcPm4wM76vUpA+gDO9PQ+Fsb6GdBo+BIVnvnUiuL1g8BG+0FhlvlZ/5T7taYs+7Zv0PcYV0LxsSGI+tPsVvshckb6rpig9g40pvq5plz32nNI9lMG4vVGPizzFobo+cFUPvlCysj4+VoS+wB7fPNqS0roXReC8xDGePecuFL1BRI28SqxDPgkPqr24VkW+7KYVPpWepT0wZ6c9j5HTvvUakz02u548fcOnvleDMLuStiu96a0mPaJqfr2qxQG+lXWHPUy2X76j9ES+8FDOPtYdOj0z4iW9DIQMPgO8Jr5A/LM9Sr0bPiWlTL3PiRw+38nCvtSMi72C0QI+voP0vZYjmD50uMw9+y8nvjj5GL6qsKK+uQiOvqylPr0AmhY8GOCivb2uK74jXqO8YpqPPqWHv77wYIw9bHBXPkSQIT+vxiC+eBSUPufOCb7gOa29DnBdPOJjaD4vgTa+ndYwvji0Br5wqFy+wl9+PXrwHr4xKI4+XrHOPTlSzj0XFYY9w3O/vt/jBb/mCDy+kpvOPqA4Bb9qoj0+mRqVvkDX4z00bzc+KmrIPeS+OT6Nb0S+wie8vY5zsb3RT6a+FtQBvNzCnj0HBnq+9yxovq9xm73IG7G9wleMPucF/T226qw+WDG7PTOuQD6q4/U9f9iavJPVUD7DxQU+0/Vvvtfdn72R+KG66t8XvqrIAT51DSS+D7ZqPhQosj2bCoE+iqSFvreJvb5KJg0+1R8NPra90L2uwhQ/37DpvbFohz3pv649SZRuvpp7ar2USKA7IQyVPqrb+z5Ki6W9psV+vQpYhb7H9B49QfTSPkVJ5T1186S+reFgvR8mI77uL5q96eUyvUZGpr1161C+Oo6Kvf40jz7mKIc+8+0CP1m9UL6TVCi+M1LKvQkVl75bGz8+v6dyPjoKgz0jD1K95wmJvNOGlz4eufU9nCvhPT75BL4TPm29eXBzPtCA37zoQlI+2J6dPfhGlj2pNbQ8k9dGPlJ7Wz4NaAc9V4OiPmjK7r0NitY+/z3EvSt8/Lyf76a87tTAPSStnT6wfjk+OKNnvFWPU75sb+c+MqJRPkn9Jj7udsG9PDiPPcj+rz5sJTw9FQydPlk7hzslZRI+qee2vQb7kj3TNau8Ztk3vi4qtj3flW0+m0qYvjoZ5Lu1cLW8bN4gPebayL0v8d09y/ycPsANvb0LSZk9tZ9wvtMjtz6IxBU/96eSvmE+/71y6Bi+rb6yPb1XOL6x4+C9T2MpPdadEz1+k+u8qWMvvyRlSz7GKmU+SOnuvtozurt62AM+ZmCPvZMRh74YDak+F5oyPpbrqL3gGtu9NRY3PkyeXj3CZYM9Ri5wvR0tPz48WSM+5/OePR7RAT5jPAO/84ibPW9k6r0dIN49ypNbPXTGOr7+mOK+9Qr7PYY3Nj2590Q+4geYvE3Ccr3+mS09xfE1vqjvj77zdOA+HcJXvn9rYj0wERs+mPouPtZEzzxHbwu9/K6SPT3eIzv4qYY+ZmbxPROUAL6exA0+sA24vZNuob0VFoK+SGf0PaZeFr4wNKQ+Fb8IPebeFD0aGAI/1IAru2s8jr34+rg9Bu11veUDnT458Pe9NBvYvqFniTwrxh8+TwzJvdhdZr6JZ+U+EliVvqRa0bwLpWQ+jP4OvS5fC77Kv1U+gxGzPjG2HT4sHgu+CqfIPCU5G75f3cW9NuAVvpazfD7YaVa94KWmvs9ufL1eUwk+XUjaPczyxD3P/hI+r6ILvWeapz7qCkO8x/6avTgf4r27mvW80xihvcO3qbx7pIs9Z2SHvrkdYb2w9JQ9xFFyPgr50T1LNIM9tvSIvm1Scb0JBJe9CTSFPsspzb6wDhE+NpoWviEFDD02BIk+tgjHPZprIj6XX5Q9THxgvl2Kar5e710+o+jUvuQ8dTvTTRa+LMYvPgQtEDvttHM9NyfTvXhSkDu4PQA+97iHPuTzUz7opD49vwOLPp2IFD5F4qc9Tox4vRihpb5e5M297HfsvacglTtMp6a+5EqLPTmxvzxBj3g+lqu+PW9T6D4mZKq+mA/GPeGY2b2NfL+9yxMoPkXUD73sZ2q98OPTvXU8Or7B0gm/vrkJvpLn6D0+iIU+8onSPUAvmL6j7oc9UFM+Pv9JiD7tF7M9dL0/PVixq7wBc207fUQtvb5DHr1VBcU7mObPvr9LDb9pJxw9RoS6vHkNVL1uMZ2+ex/ZPl7UPj42qS69uvgOvUew/z2iSaU+Vc0avm2ZbL7tlQY+K4M+vfFKmT3AB4G+e9OevtriAz6Iu5m+BrAzvWgxFD3YvAq8yWgpPqBmtT4MBs4+Yx8mvERVcb3q8546I//DPW6ubr0zOp88vXXRPjAfcr7DQZC+dOGRvu6We73chS88LXqEvTSkuz5LNZ67zpeMvUJySLx8Saw91ZRnPsDY0j2mbzw98YggvdWE/T1EAKc93pdJvqImLj4H5wg+iJnLvgHi7j02C4s+kzwQP3Y/HTz28X+9Pq6bPDK2nL6pGhY+upAUPlM4Nr62VW++3yVjvnZB0b02YYY8o6Ukv6YvNT0aZza92tZyPi3dC74jDTa+CE/NPlOz5j0+MNk93JGYPtmGG74YxCs+ZnMTPu8eFb5EJ307006WvlcS4r2Wko08kc7WPdu9Xr1fSaC+4sEDPiETQb3/5Fq9ma6xvV+oRT71uEW+J8lKPkeEzD13dDu+alYAvt5CCr81ES4+OHBjvALwDL7FZOa903tOvhbk8T3CC6E+CXwePSA02L0r8ZK+owPIvTGSJb41pmg+yax+PmC5Br7a3lE+HJeQPOvGk75WewS9Wm7cvEVuED3RTRy/ZuemvUTMFr5+2ks+YIilviaUW707QFs+W4yGvlecFD6FBpW9FD++vetjSD5k2I8+2Iq4vk1GOL421wS+4zH0upILML03xKY+gxQMPuF3HL5p8tU8VOyjvOa8s753HDY+Jt+xPJUCiD4jWxS+3apVvl2i7Du1RhS+Z5tKvsqBJD6oubg+sypOvtxwUL1XxiG+drShPQGxJb4f0rq+QjE5PvHeLT0cS4s9hcwIPoH2wT4Vaam9tYGpPSd5f73eGoO+SuAHvl5G/D7Wz2i9QRtxvht/hr6wf6y9R1RFvj9Gvr11u5q8kcoyvW+QGr63evc9KKIlvm5abj4+ooa93nu8PXkOsb0lzgq9h+ETPZn4gj7FB+I91zZkPr35XL7963K+G80NvjZPfb0GOZq+XRPTviM9A79dFgq96Hk3vj8JGb77s0k/WEzdPYwFVDxHmHS+a2Hyva7RyD4up7C83pFZPiqY8j4Ak6O9P/f7Pf2v4b2d3S8+0XDyvXiMlb16fCY9MMtovsU4FL3C/AS9FzWlvSEnfL2/hWu+cufpvdSpKT6vsHw9WsusPkUczT2Z28+5zhN8vvWGNz5Jdro+qqosPQhNTbqvPOe9DCCKPQ4YH7u9AZw8bwCjvHKt3T05sgG+PQIePtZAjL38zja+FhrJvigNu75htIK+yoCTPGG1ED5PDpO+NZW9PCTaWb6RPQC/KItLvmDnwb4fvOU9xVlSPv79d75RAKw9sdA+vfiEfL4vyLK86v5EPOu4kL2C0ho+PKmjPncwAD4i5Eu+yAYKvov67j47BKE9i3UMvp4ydD4SPEY+m/KtvVjsZb17GeY9wLdpvVVnZT4VxRs9POhGPmo/n723suU+Vv2uPdDAGr24eji9eLe9vfJqo76UWDQ9m1navkQIDz7kw+Q+hrUGvcOXkj0/Dpa+9DY6vgWL372Nj8I9PE6TPbjpeb4tnSY88+T3vWhSzj5Y0R0+NbZgvbh+oD4WBWs9ciFsvjkO9LuHCTW+jhrcPNIrOj939AQ+j5IyPNjeor5VkZE9EtOAvvrCGT70Hcy9U438vXwzcT7feKO+iciYvnRkh76CDca93yJevrWZE72sGie8SKOJPuPo5r1LGw0+yf+pPv2nbLxctmq9b/FiO9eKJz6ADcY9XDGqvXfm3T1RLEC+ladhvY6udr7SWT4+j8OtPjgphD6Unag+0wZlPaLegz6qXi29aqnAvoZKhj1BkTM+xuuAPvOmGb4qH9q+XdBRPdeZab7w+CY/wRKavadJ5T1Yn2o9zlR/PYsKAL/MRcs96rhbvsZleb79R++9M00Uv1JvdT7t9hY+6ulwvQ5sTL3iL7w+KeUDPhVWYb5++s092oKjvQ+6Dr7z8S4970eDPP23271VlL8+c9Z6PsObDLz4lWa9QKuOvSAZ5j0pc/I8olnOvBR2u737rW2+9PqIvDitiz46Thy7B+TJPVrlMD0ZrBa9WtaiPssFhz0OPxW+1zPGPOjnFD4oTXU9rBe1vcSYcr7T5Su+Mu3JPmqwH75pEXI+/BxuvpfejL6t/Ju+QEziPv2XLb3Fmku961eVPWULqL5ox2U9HPh7vgxORL42C04+j1acPoZ7LT48Yc4+o5ZHPqT+zb72owy+fq+yvrhjOL6iht490N/pvAtUUz5/DjK+L133vURqd76qe3g+LdM7vkyJNj9Awom9jf1hPlMTK76o7rg+PPsFvowpbrx4LYO9HNZBPnO9orrXxwW+SNjpPkGvyL114rq9XjmsvcEcoT3ineQ85qwNvrwLkb5kqdk7ASMtPpu4Rr0SAis8kFHfvdj0Qr7BoB89HyXIvKwLjj4k+xa+SdgoPVz2nL0AMHG+UIWiPgq3jD0jV8W+40atvvDlx77DKKI9tvMyPhuUsb01lzM+gJEfPtp2az7fcI4+XFoPvuaCyz3BwX89BNKwveNUrT3q25E+Jf6JvTJqUr7qnGI8TiOiPsgoID5VbMI9Cn16vS+2oz1TznQ9PR6Tvnui+zpK0Qg/nHcbvgsATj6q2Ne8MWR8vSW/nD09UY6+zNdQPgovvj7XTHE8peqsPE7Sw7z+SLC87kP9Ps81Ob4x/Ey+bmaDPtkIMrzocJg9PFSGvifhNj68MSU9jTFVviJlnz2NoXs+MJJEvQxKrrxZhpi+hGU6Phy7Cr5TevO9DK9/PkVZv72DLAe+s7dfvpQCSj4kX2O9Y/riPauNL75XXaC9LQlDvQQyMD4ToWw+1KKdPcDPaj4BWJO9rlewvgAcLD5iUVw8etTkvUV2WD6o4jU+evjbvQK6UryRyJs++ZsaP47Jrz5902c+tNDMvSLBML6hcWY+c6w0Poxc071VQ6M+5NJEPr8jhr707zK+p46kPQ5bIT5by7i96PHwPboGEz71x0q+elKzvnF4LD7c45Q9pR9Yvh/49L1SMTs9jNedvamP0rwRQcg7ZzicPhu/Kz0eHN+9LsiKvaXhKL7tsIA+HTFrvR3/gb6Wgx2+z1W5vb6+D75FZP69dnFMPrXcgT7XXT8+NDEWv24pZj76lpA+dcbXPbHNVL1jC/I9jlRbPoFqAj5569M+asWiPdBhLD1rMGI+/NjXPXT5kb4PigA+6wUkvXXuz7xuWYo9w2Q7PXVXE7346W6+OYjRu041+D2kHCC+5ojbPeoyCr9fE6u9l1RPPUuSqb6DIlU+MRtcvc7ALj5TN5Y+FBm/vqWzrT1qxCi99mVpPVekKb7cw6E9cpK7PQbMpz5GfLM9g4HNPiR037zQdoW8/R1ePYBf6j2R3AU+AfX6vm5ZYz4QonC9QdAXvbGhtrwRHya9BimdPbJzhz3QfNY+TwUCPaPlyT0nq+w99t7ouh0vJb00hKy+40ubPX+OWz5b4QK+MFISP3a61b4SXPC9x7XnvcwPBz0u/8A8p0UNvWsFhT5PPRo9+WqUPvg42D5SLBA+WRsVvVgIpz17Zy0+2O4wvVW7571Nyo2+J66TPQJsMz5Q9So+ydIivlQDQj1LUXY+NCBtvqaP2T2dJfc8m28AvvePv7177QS+mvX8PBVjh71GB7S9kA0lvi+bVj5KScc9hiwWPj3dpz57EX28kfzTPbRQGD4TQAC+fhSgPaxkkzwN6VE8kknLPSGcPj7BYKs+MPEJPkM/7j2tpqg9WRL4vNpqhDx2iS++MVDjvrjoMb6MXmG+G5yOPoVZ4j25DRa9BR3OvZgJ2b2yubm+bwi+PWu9pb3bT12+6j2fvRfLFjy2ZeW85rRKPncz372H9Jg+F9Ibvk08fD7XRYA9rxQGPT05Xr1nTCe9yX0cvkjuCD7pBIG+4D25vtbykT2Y1M89bvJDPj8EtTrZso89mQ9LvoMysj0gv2i+xiCTvqM43rtHCwk+V6QvPujVGD6rDyS+ASX6vRIIoz0IXQG/hhXYvB0Blb24iYy+7GZ6vhtJCz6DXK++UTfQPf+XFj6t32++cTxbvrZ6G75lrqg9sxW8PQsBQz6sG/q8HDPMPlAwi74iOIa9OZUavg+4V760iF294VMXvnHXl7qEYBa8TiehvjaPKj7F17Q+e31QvTlnJjy9QWK+NZcAu5BsCL4IxMg+pSD9Pcofer4y0H4+YKZIPisSlz2AyJo9pZLVPmdN4b6HP+m+uCKDu16wuD6mRuK9/CgBv7Masj4hciA+NAKUvngZEL6Wy5W+FIInPhJDtD4Krvo90rUYvkIxkL64MHo+F9pbvjjEg76P9U0+nGKBvi+gVb2CE8U+bUQAP3Y3z7yoMzi++20IPiDG6T3yEKY+8NC8PtLIGj7HElK+rEIBPli+xb17mIS+YZoFvz3L6D3qm7Y9M6ePPd7EVr1Lywg8JnAbPUPEpLwdAhM8UIlZPZjTLb3hG0Q+L7bUPh2WiD1qYcG+0pK2PJHIab5hoTA9tYNNveyKBT+RjJa+fF5qvrh14L1l5cG9VyzXva5zB77QRCq+PU09Pk7ndT2COXk+XVfRvb/mBL6oRFg62vd8vCfQOr5iiUK9IgCtPWE8gD080O++Yg9TPkH7orxLKBO+nH8WOzAWKT5tIuk+IgIcvPz1mb5HQGi99wKUviXHc73o/1q+OMErvkbEa77uHsu+IeXkvSVW3L0KJzY+EEMrPn7FXj3VPYK9vfUVvUACmzoDnR2+9tmEvXiuFT1LToI9ti6fvrYytrxKx405bKY8Pi0VCL3cWYk+3dLQPHirF7vI65881fCVPc7Fdr5lmpg+8AZPPoTkPD762oy+oFNsvbNsGT1cdEe+il8ivsgQMr4Inde9F9L5vd91lDyxmce8zt0pvrv03z1RQ5M97TWtvRGc2z2UvtI9nmrvPE9X2b0oX0S+1eWVPlpNzb1HQ0u+w4spvgClgDw0GsE9he8rvjrQyzs9JfI+AlQ0PiRYAr4ifIy8wXfxvf5cfryN9iW+3TEuPcUrzj7BKUI+z/CGPDXP3z645Vy+p7LQO0VfRb6GdeU74dn0vSbrsr3b4BC+v0JvvmyaBb55G4C+gBm+vSgCcL4Y29K92CeOvmpyNb1pqQI/Pmf2PY/t0T2VRSA+wmWyvmz0tT6YsPQ9SC3wvX4bC75yzXk+GNQwPXv+Mr7scxy9RDjavReLrL5zvpI9CXx7PASRbT6VZR0+0NUWPQVUgT2X35u+PE6iPUvkKL2eHjy+wJK+PhMSkL7C1pQ+Q8k+PYfusTwa8C8+dzAyPSQIU76yHNW8Swt8vtqllD1MZQo9r70fPkC1OT7UCI6+CoiBvhMgBL31CuI9TfiJvWEhMLwu1TO+/y9nvYO9Yz59PpW+bXNePb05Yr5hm1i+YQfDvfnfe76wvCM9hcxFPsJ4zT3ivEe9nIE7PuUBHb1jd289ENYMPaxPjT5waPS9XGyVPPBxIT7IhMq+2IABvtuaMT0AdGI9pmVGvUvvKT6prSE9O5AWvlMk6L02ZE89QrTMvVF6Fb0EbP29NpJpvctjCT5xRi49msXePuTX2L43cQa/psSxvizJK75IJ8Y93ERPvXvG9b61Gfa8J7RTvqcqFT4xdKY9dwx7vnfIrj56GQW+EQNMPoLXALwWA4g+aZL3vrxTbz5J/N891H+cvl4k4T67a909719EvphiGb7ASz86X+jYPj+ybjw9sBk9J14lPQogB76Rg52+6IqtPXddlT27dow+HJwePqKDlT62xSW+XUplPfwufD5Z2Uy8piBqPgAWFL+FRK49KczkPUpfgj37OMa9LoroPkGGnT3cXZq93WyVvaGGkTxl88i9mFc1vsQLaT6wQSg9FUR7PQitWb2T9JQ93PIbvtj8Q742GNk8gm3lvYYtsDwvd7E9kkGTvOzb273NnHk96sf9PFHUfr1CZoC+uAyEviZ2MTywUsU7nRCpPXE/Cj62y2E8jRWMPHuONj5R4tk9g060PbWWrL5Y5IC+/65MvvXcrD7VEvi9HuEjvIk9lD4hAwE9ux9jvpohar4CQuO8VGuWvYsWFz4Aosq4qbZZuzHs6rzI8bs+3K3OPbMI/z2nuRu//WuFvTmoDL6H4Ce88dcNvkXHRT3Z5O88Bd6oPTW2Qr6F56S+NJ8qvrWiRT6lcBu9kTIfvsl3+TuuPuI+8qXXvrsc/L1bvFe+4RB7vejXdD4B2kw9sL+VvjKxE75lOP28vPrlPT9qtz0+OVC+P5bNvZR1eTzAG7U+VWNyu6aohL5XKSg9JL2fvGvIc75A5KA+eEaAPROgSD0WQoC+puKmvjMP/j4tBpG+/tijvoMZKL1WseM+KJwQvuM6jj2T73y+DumovWHLlb3f/uc9IpCbui/3tj6et029zPp6Pd5gD79bkZY+sKQRvbxSkj66f6G+2VAKvrxvPr45oKM+GE81uSbPtr5EbqE9FSiZvsVgYD2z2ia+K3cGvgTLE733oAq+JR1IvjzPeL26M329R6nPvWfz5z2qogc9iam4vMysEj0vWhE+9FNpPqaJl70Gbpw+gPjzPg8L8j0Zdaa8wrJLvp72Yb7ZlI09yfgNPpcFTT44bAi8Tiksv49rkb7ajFU9BelivsbLkj700ms+Nla2vuPVUbz62CI/W0Xsu9cv0L0icCW+Lm6vvmDDAT9p/rk+PZwDPCoXgryuHfC7xvkovtTMNb7Id6G6GFGWvH/aQrxeBn49RttRvuW/Cz511lo87K3EvVhgHD7opEM8h7uMPDmPML7qDL4+/QppPZzJg75ulDI90HsAPcD5tD0xkoy9DXMAPlhf2rxz4Js8sdJivmDhej193n8+kRN4Pl2POb422MQ7YNudPd9r8b6A+pI+zJgavssEUDxzf5C9aHg8vuRnYL2Fou++fYx4PsxhJL7GwfI9zfcdPsybwr0UpF49tDrSPF4bCD55ZxG98Hl+vDQVYL3gxyG+Vjp0PuXqVD7ZH38+rsKIPiISDT4Wlyw+i48KPC2mhT17xec8OZGjPu/ZBD6k/sC9ZflKPion7T0T+FQ+fs1xvlgAG75SEJe9Ar/7PvLFjT6ErIa9RGqmO4pfWj5ap9C+9NXyvuIcij4PuYC9jT6jvmlxkz2BhRI9Wk6ou7qTWz5PqoO+B/WevtAeqz6zsQi+x7JqPl+ajT5Ve/s9h1mVPrAl9b6GeFk+hc0bvrzGRz7jU32+IVIivOdzFT0SRnI9Sy1Wv6O0A71hv129JPRCPEtuCr76wYI+wpwzPhWOaT6bYwc/nOCpPbjSnz6WtYo+es2xPJjyqD0Itzs+TMyXPVBohb1a0GG+OMPzvWOoHT7IjCm/iuf0PZBMh77mswM+I3CEPg9Bj71DFYW+TZeMvcBo+L2sDm4+jb69PT39FD5UN6O+oza7vSJ1Lr6h8wI98ePPPGE5Bz7KyzU+DTaAPnxaeD588MM+fYg3PjFNS726KKm+yCgBPpG9uj21GEk+6QFjvV2C6z7w1Si9ioKXvjJP9L3g8a+8UK62PZPsGjyC7Fg/LVNZvfEYAj4jBGQ9k1kEProrCz6SrYm+qlRkvqHh6TxikIc+W88BPrNRbD410SE+0MYcPeDdgL7YdwA+gjwNvkkDLT7wuMg9GfaHPsuCbD118CG9ul8VvMMQpLzf+EA+uQ/jvVyNL76fD96+ig+kvRbl5L5jqg4/lI2uPHZhNj4ywQG+N54Gvl1l/z3CAD28qOkSvxH82jxl/O4858FEPVSm5rwIX5S8CtFlPNQ3ij4k1Ho7oduXvZPgFT4mYxS+Mj6TPa1vVD1+Bkk+GME/vqxMpbwuqGM+6YQ+PnL+FL3nrbo+elKWPqH2Zb0a+VE9gi2dPUOCz71/WY29kM2FvhwqKD/QRps+A4T2vZcWaL6NfKe+UxQiPlttCT1nIrQ+ydSOvq4Kbb6Co6G9MM79vBFeAD5keem8/QIFvoIJK75d36k+VjeVvq0X571EfdG9U41+PWB9gL7dSxk+lUiePgLzTD3VWYe+4xRxvRaDvL0K/aK+MJbDvZJnM70L7RW8Il6svX7/oT2aavW+t3YIvmJXiL70S7M9bgCtPvNnmD5sGcA87CA6PGFKjz21+5i+MDAbvl5eMD2XQQy+FOlovcMD6D2VxwU+5GrsPV3yh71Akze8izWDPZwJLrxiJfA7Nlu+vXW4Cj7iBF29KNbHvKyxTb6Eorq82K3lPd4SY749zDC+UJ6MPLB1Qz58YMM+wUB/PoI3lL7me1w+hFcoPnhDWj7Zsq897Jt0vbTbEL73GQI/njbCPXfgkr7hQjy++pVDvVNVGb5byto7IEGDPp1Qib4D4oW+S7EWvligpry46ge+5gFDPZqnCj9rIja+l5/Dvm5PNLyAOCo92t4VPP2bmT73clE+FrOhvqU9iz7LWb49se3+PMMokD7xf8Y+67S8viRZUz030/29ioMwPy6y+r2wW569LphgvSxAMT4jmSk+6RhfvUqxgLx2FfI8aYU1Pqaed77FR5w+/vpgvxCn0j2GulU+jn31Pv1taT5KkW+6R8H4PVczxbsyvH48jBI8vY9/S7305i2+FcYxPlX+L74X9To8z+2qvr7aAT0aJcU+jDxsPp6byT7O8Fc9unb2PXc7Mz6MF8S+upOLvg+j172ZJeW9xzhZPeaUFj6edD0+Dq2IvrBX+r1dFsi+IwGfvh8Vkr4PXQG9ziqxvEprrr2salY98OWLvnCACj5K4Y6+AnKBveyTKr4DrBc8bCk1PqAYAb4fpwm+P6oyvq2AqL1ltQU8+6lTvWvgsrwMP4q+lZUHvq+QfL6ZLrk+kRTgvSRoz7zWiS0+XewWPnYSrbyqbhC+Ym1Vvh/3o75s2Fo+j49WvBkkJT6YBUq+OpW/vr2xkT4qkLW9LNd4vunMtbvhmgW+WbfePVsYyr4DClo+bWEIPn1vGLxFfcm7BsyIPZvcgT4cXT++SRSzvgiVgL5wJqs7/bbVvlJSs76N7Hy+MGthvtrBaz5u1nC+U1AvPnQ9572L8kw+et8VPVFrJD5TlJI8dCWVPVCauTvLoq88fIAGPntrjL4QI5A+gi3yvg/ml763KyW9/vaXvd8V8b644de8ZTK6vJjyvL52yAO9gROqvWDw7D1M268+PKUmPjCrmT7zRJu6Vh3WvYBOGz5vtCO+wkQDPoW13b4/Nhk+rK8YPlKovT5CKKy+5VSbvWFCJr+dZKG+VfKsPep3Mz0q3FU/7DphPro+lT0DFyM+M1sZv+lOCj8JdXm81hh5PoQsjr7Q0Mo+uehsPsGqRT7+akc+ddGZPoRdrT4pWUa+VrwtvLvenT3VlWo+i+80Pq0Lqb1M+3q+oX/tPf7+3D3XQ8q9UkoIP3NwBD6gpZw9BKhOPkiPlD5G8Mi+eoMavkfPzj5vN6u+dUKhvtiIjz3wTLc9WGAyPertx73RPCu+Vaw2vbZHML6nKWE9TD8xPXiIa77sb1o+XKhwPlDkEL76xxy+aiIivqKnIr4fJCo+U6eKvMuAqLzS0LI8YEH7OQZam75Yusw9h28GvV1lgb6c1bU+Ey91PvGTrj2Mjoc9U2NbPtFnUz6MMDq+hYmgvR/ixD1CGgU/RkEbOyDvVL52K3k9KoynOh88gz0PKbA8/TI9PnXkkT7VavC9IfhMPuEOVz7Z6zI8RDH2PsHK1L2gZ/c8c4x8vi8kyL4ik2c+AKUVvnXGWr4BT489xJ8vOw68PT7hxLs++q/LvaA2JT25SM6+ia9yPgdCor42d5S+kLDkvhpVcz31jby9nN5cvHXdfT23yJI6bnOOPkFIXb4kA/w93JtivVf8hD6i1gK9BXkYPiRelL6cQx+9v4POPkh5nr2k9kU9pYuqPrx7A741ydw9F1q5vYTjWr4edZQ9yxB6PjPCFL6nI0a+wjX4PDB2PT7Ljr482pD7vdV3iD1r6l6+Cu+ou6N+Fr4eYBo9livEPVE2Zj7mqGK9Q5QFvqUpxL0vnKI+nAvWvE0LzD5tYbq9u99DvmMh7D1kn8G7j2CDvrfeGL0dfM8+0hYgPrURor7QtqU9/HZCvjjl0j3Gmnw9UK2evZBLvDyeG0U+9o71PehW/bwwitI9Ds4DPZAhqb6HXwm+0xxYvl5Biz2nmz2+CS2ePilkqr1S+E0+wuDfPnNs1z0wcmk+x0gIvbtMDL6Nah8+FWlHPLk2671tPhI/TIXwvYf9MD1J/y09a4kfPfSH/rzix3094dwXPmWMsr5l8w0+Ra43PdGIy75jIPc9w2grvp/EOr75on8+soYxPSJh8z12kpG+kkIQPsN4Ib7RcXm+TvuDvd7mRTvT05K++4idvMPHZb5LM2W+utM1vZIC6L61rE2+whqQvi7owD1+/JM+5NeSvu+uqr3zTpk9df0LPn2qNr5iu5Q9ZP8qviOmyToGtZ8+u/6OvbRFjb2qNPM9qo3OvcTfez4ZH/W7AVcxvv+lN74d3cW+2rgVPpK5vr1+fhG87iWhPRt5KT/wWJq+mJ0kPhyZJb6TOJk9txyRvOMff74ouCW5QA9ZvVS/6Tweaii+triOvop2jD3wXo++DfdCvW/5CD5jR5A9PjtVPfnjlr1jY40802wWPgmxMz5QKZm+k8XNvbBZEzuQXMA+peWCPvavaj7T2Jw+bp4VPVtTCb7enr09eM+xvRuBGD4K7Yy+Bw8sPp1O0z6D+Wi9TufjPd/EbD758Sk+UPRIPsorJL26qwK9nafyvAwRXj74bGy9saHZvEf+/L1wvpE+FDJCPFc7KL43kw0+pHOPPsWvgj450j4+7RWXvVRmtj1L1SM8Y7mCPj6tQ7597xQ+DWcbPsxgbz4mVX++cHiYPhfDBT5p1a29P0mOPMnWnb2O2e29gQJrvrKaHz2w8M491PW+vL1BBT4KjAO+PYC8PmBWuz3qVVa+Zp8+unnZqz4/0gM+Eii2vS4XUr4XVjC9lF20vi/bj75nCXS+54qFvV9uD79SSKa+gONRPt8MdL763Ye+dT0ovu1WSD5ZcD4+/8Shu+uk0Lyt/jw9YceHPj0h/r0/IS29a1kiO2dFPr4OqCk978B4vGMLXr4gl2y9kMX3PNZviD32tbg+FA3OO+7wFj+XfDS9pyLgPccZEL+BVBs+0ExSvSdc0z1A41e+0Gt3Pq7OEr4QToW+RZ/VvQUDNL0S/vW7oLnbPRlr470/1tU+/vMOvn8i6D6ux52+GbNTvvXeAj4++bk+9PWSPH+WAj4kbgW+TnHOPQtRR75rv+m9ubWXPZ43ND0DLLk67G+QvRNrhT2drIg8it8yvle+tL50cXo98MzYOzPSpT3VRQ8+NBbqPT2XxL7MqZK+NXxKv0bwQzyoh4E+vFkXvl3+WD4P3YY97dqcvhli2z1PIQo/f0jrvfQgyD7LyjE9eSNVPsflWr3IhjE+PydTPuqEdbwiYRA9UYDrvDAJJz7cPQ2/nYZOvpJnZz65Nf89nFhbvrA06Dv5x2i+cevVvdFWOz50SV4+Jr6nPUtynj2vz049YKxvvlwjLz0rhNs9ev4avm29jT54nQU+Zqk9PsVB9z0IbMY85tMpvnabvjwGTLo7200oPq1Ewr3KJDI9jGd2PBZIyj4C34y9oZERPuKeO7voO5w+VyuqPOWcLz4z8T0/jl/KvHvxej0Zn6y+k1ujPHcOzj170LC+S/syvnTBmT0nOjy+wbMVvnFvs72gecA8fYtnvpFkdr4P5JC97hE/vopWqL1+tok+mSERvBxPXr5VRJ08jWJuPfiSHz3kMLO94Lu6PUpbBD64wTG+7JPovRCbCb9ziA++xC5YvrB/vL0Z+z2+53zhPqKnET67iyw+jD2lvqBRcb2QWpA+lhuGPZoV371B7h+9rtarvUUmZjyc1UC+6h4SuugMab2uH9s927E3PexbRb6580+95y1bvnaSxT3LuEq9H6koviOtIj0Okyg+keQ6PuC7U73TyI098QZVvfFD2D1zXVS9I2+IvoWllz3uyRw8VIrKPX0Q0D4gaVm9ZRYNvmvGiz7nKpg92NMHvs2JVb22BWU+wkB9vjZgTz5AUKw9HSWIPe1SJz+wdpU97E15PdoviD6SNns+QyNLvhJ5M74f5w88Oy2RvtEyCzxZApq+iCznvPPntD0Sy1y9F3MDvuQNNT40xGs+r/C0vkIVeb5LctW+URdLPS3Rbb5hb8Q9vBrUPSD8XbyTmgm/YgQQPnluJT4lP4I7ADNwvLxupD1dTDk++6gYPgi02LyALt49VtN9vhq2HL2XkKe7/qVYPp+wIT6s3oE97I8zPqowcT3TQDC+/zNPvnwAkL1Ox/k8ds2xvitgTj7m34s+n+mYPUyM0Ly+ULC85mgivvZgXj5ZBX6+9+TqvcnmEb7QOVI+z4g/Pp01dD2YVcI+6ZWgvv7Htb4JuMM8LGcWvsdSND5vE08+uFM7PcxQZb6GXae+Gb2/vbymRLrqOA++U7L+PBB7Hj8HUv69nZWxPnaGq70ZZAY8ITgsPsNr6LzymZI+oqXWvZtrSr4KbDo+hOoivRuwwD2omnS9hTBovlL7g75GYpI9YXgbP8OTiz6fuBC8P6OrPXgsDrt4rDC+erqRPucErr71wMm9y1I1PW7cSL3+NUe9NmYvvwN8dj5mOJg9z3N/PluQUD5lsfi9yLAMvrc2Kz11xdU+N/5QPtitxj3rKW0+lI2FPdua1z3/HZu+l0b+Pa9jHb4Ivey93qinu1pwT77vatK9/wjqPdACtj0E+cM9mj7nvAJxhT1oT787a+eePtspQL4OOSy+hXULPtIiBL3UQj++g+7EPoR4ID4Lh18+FuAWvir+eL0HS7w+/2XFPXaGmb2n8N6+c3e4PmyCXT3xshM+OaevPir73byVHUC+HhI6vjrPmj2BPPM8e1bTvjT+aT4FMfS+FpE2Pk5Mmr3j1oc+owm5PKG5Aj0nnNs+N/j0PbTzJ71kR5g9MF1ivhGVjb1+0PO7AmWqvaiB9T0NYIq+l2UjO5y+Bj7Z+1Y+YIfHPNkaPz2QU8K98aHYPrnsBr+wh5484s8zPffNgj5an/u+mbfyPZDUAL4qeFu+nZP2vQNXnTyO95c9vB1cvrqQPb5jW4E+7lVZPg+wtL6fQPW+BrI+uxNCMz5bVaU+UVDVPsFlEj5xbts8t0zoPcR/Sr6x4oW+KwY/Pg+0mDzfQra9StEEvkgYBb6PwSw+fdlUPixGYz5jR1I9BLUHvqQ31b6Tsj0+bpszvgEWtz70Cpc9fNNqPQm3+j2aism+5aiUPqWliL4oKOu+lwGbvYE5kL2RHXq9TJe/PelupjwQuWC9HkmrvjlOp77yZYW+uj8ivRV7Db5u0i8/xPs1O5XEAj7Hp4q+aUS4vgWJ4z7VEwk/nsPCPcfOWLy51l8+6a3APb3Yn7439bY+L2+Kvqtcx72GLLM+rYzTvuPTQb2Gh+m87Lv5vSDQE73Mspm+fL4DvmsBib4xIUA8HyL1PjBklL7Ug+g9nf+BPufKur07U5W85MyzPpbxbD0Ly/u+sf4OvhOqqT3hDl4+QtAVPZTslTwODYk9uGvHPTJRO77Et6e95aEMPvP0Wb3dsOW74zAnPXBLmz5gO+E9UJwYvvHbEb5DNMy9Jlgpvq6XeT11u2m+ETHWPrHal74f0Kk+yk0aPbYsMz4tJIe89BEIPsto6z3t+Xa+5atKvhPT6D5lqBy+HcCtPKdulz0/Z609mANFPiJa4r2jeKQ90w8yvqZ7Kj6aNVy+4xNOu0NjAD7vECS8Vz9XPWOYKT4Nk18+aykiPtOKGz5FxYk94H+ePV57irz3mey91GmCvU1v9r0SWPW88uzlvXWIjjs3z9u+lIWUUpRLAEsUTQADhpRNAANLAYaUiIwLY29sbGVjdGlvbnOUjAtPcmRlcmVkRGljdJSTlClSlHSUUpQu"}